<pad>	0
<unk>	0
<s>	0
</s>	0
[OCR]	0
[INSTR]	0
[AUTO]	0
▁t	-0
he	-1
in	-2
▁a	-3
▁the	-4
on	-5
▁s	-6
er	-7
▁c	-8
▁o	-9
re	-10
ut	-11
le	-12
is	-13
▁p	-14
▁f	-15
▁1	-16
at	-17
▁of	-18
▁n	-19
▁in	-20
es	-21
it	-22
en	-23
▁w	-24
▁an	-25
ing	-26
▁b	-27
or	-28
▁to	-29
an	-30
put	-31
ion	-32
▁m	-33
de	-34
ll	-35
ou	-36
▁th	-37
▁e	-38
▁is	-39
ac	-40
as	-41
um	-42
▁2	-43
``	-44
te	-45
▁and	-46
ar	-47
▁l	-48
ro	-49
▁I	-50
▁T	-51
▁d	-52
00	-53
▁co	-54
al	-55
ed	-56
▁3	-57
st	-58
am	-59
th	-60
ers	-61
ol	-62
▁(	-63
▁g	-64
▁The	-65
▁≤	-66
--	-67
▁con	-68
▁In	-69
▁num	-70
ve	-71
▁h	-72
ts	-73
▁numb	-74
▁on	-75
ow	-76
im	-77
utput	-78
ic	-79
▁re	-80
ir	-81
ain	-82
▁O	-83
▁st	-84
▁$	-85
▁be	-86
▁that	-87
▁number	-88
ple	-89
```	-90
▁```	-91
▁se	-92
▁he	-93
ct	-94
▁4	-95
teg	-96
ay	-97
▁integ	-98
▁P	-99
▁sol	-100
qu	-101
▁for	-102
▁lin	-103
▁are	-104
▁Output	-105
▁Input	-106
ble	-107
▁i	-108
▁code	-109
▁0	-110
▁5	-111
tain	-112
▁A	-113
ot	-114
▁pro	-115
ase	-116
os	-117
ach	-118
▁y	-119
▁v	-120
▁Y	-121
▁C	-122
ample	-123
ent	-124
ution	-125
▁contain	-126
▁N	-127
..	-128
▁le	-129
ly	-130
ith	-131
▁line	-132
▁E	-133
▁S	-134
est	-135
▁can	-136
un	-137
llow	-138
ri	-139
ce	-140
▁10	-141
▁solution	-142
irst	-143
▁=	-144
▁fo	-145
▁-	-146
▁You	-147
yth	-148
▁*	-149
▁with	-150
▁ex	-151
▁follow	-152
iv	-153
se	-154
ython	-155
▁first	-156
▁pl	-157
▁F	-158
▁it	-159
▁this	-160
ation	-161
▁\	-162
ter	-163
▁"	-164
ad	-165
▁contains	-166
▁one	-167
om	-168
▁each	-169
ring	-170
rom	-171
et	-172
▁or	-173
ction	-174
ace	-175
▁W	-176
▁k	-177
▁following	-178
▁as	-179
▁integers	-180
▁su	-181
int	-182
▁you	-183
ig	-184
▁ch	-185
▁from	-186
ist	-187
ld	-188
▁#	-189
ite	-190
mat	-191
ond	-192
1,	-193
ill	-194
ur	-195
wo	-196
ge	-197
▁integer	-198
▁de	-199
si	-200
blem	-201
ode	-202
▁`	-203
ul	-204
▁wh	-205
▁6	-206
▁two	-207
▁problem	-208
▁sh	-209
▁mo	-210
▁ne	-211
▁Ex	-212
her	-213
iven	-214
▁pos	-215
).	-216
▁string	-217
▁all	-218
▁at	-219
▁—	-220
▁if	-221
▁test	-222
▁by	-223
▁Your	-224
rint	-225
res	-226
unction	-227
cond	-228
▁ma	-229
▁will	-230
▁ar	-231
rite	-232
▁u	-233
▁format	-234
ch	-235
----	-236
▁second	-237
ted	-238
pe	-239
ver	-240
▁r	-241
ame	-242
▁x	-243
▁ro	-244
▁Code	-245
▁<	-246
▁(1	-247
▁place	-248
▁given	-249
▁not	-250
lease	-251
der	-252
▁+	-253
▁Please	-254
▁For	-255
▁Write	-256
2,	-257
ould	-258
▁here	-259
python	-260
▁7	-261
all	-262
0000	-263
▁B	-264
ate	-265
▁Example	-266
▁has	-267
ive	-268
ents	-269
if	-270
art	-271
ave	-272
ng	-273
ds	-274
ht	-275
ke	-276
ap	-277
▁H	-278
▁there	-279
ray	-280
act	-281
imum	-282
▁val	-283
▁function	-284
ence	-285
▁M	-286
ind	-287
pl	-288
ree	-289
▁whe	-290
▁case	-291
▁[	-292
...	-293
▁input	-294
ther	-295
ue	-296
▁qu	-297
▁Python	-298
ngth	-299
-----	-300
ote	-301
ich	-302
▁do	-303
▁solve	-304
▁any	-305
per	-306
**	-307
▁have	-308
▁print	-309
ime	-310
oun	-311
sible	-312
),	-313
▁8	-314
▁which	-315
ies	-316
▁100	-317
▁j	-318
▁should	-319
▁com	-320
▁array	-321
urn	-322
▁min	-323
▁9	-324
id	-325
ide	-326
▁al	-327
▁only	-328
▁so	-329
ome	-330
▁numbers	-331
▁10^	-332
▁example	-333
pt	-334
▁If	-335
▁po	-336
▁no	-337
▁sing	-338
▁sub	-339
ition	-340
▁single	-341
ment	-342
ated	-343
sw	-344
▁L	-345
and	-346
▁we	-347
ab	-348
il	-349
▁ver	-350
▁ele	-351
age	-352
▁possible	-353
▁...	-354
xt	-355
quence	-356
▁lines	-357
▁length	-358
ire	-359
▁per	-360
▁**	-361
end	-362
▁answ	-363
str	-364
iz	-365
▁bo	-366
ity	-367
ments	-368
▁Note	-369
▁char	-370
▁ta	-371
▁such	-372
▁sp	-373
ne	-374
ult	-375
ks	-376
▁'	-377
_{	-378
▁R	-379
fter	-380
ord	-381
▁other	-382
▁un	-383
ell	-384
▁equ	-385
▁max	-386
▁head	-387
us	-388
ast	-389
▁Examples	-390
▁D	-391
▁Each	-392
▁cons	-393
ces	-394
0,	-395
▁col	-396
▁some	-397
▁order	-398
▁sequence	-399
▁them	-400
▁find	-401
▁header	-402
▁pa	-403
ally	-404
pres	-405
▁It	-406
▁time	-407
▁answer	-408
ore	-409
▁tr	-410
▁where	-411
em	-412
we	-413
▁equal	-414
▁sum	-415
▁his	-416
▁1,	-417
fer	-418
▁start	-419
ang	-420
ided	-421
10	-422
ong	-423
▁G	-424
▁let	-425
▁dist	-426
ists	-427
oc	-428
ases	-429
▁res	-430
▁output	-431
ard	-432
▁go	-433
▁def	-434
],	-435
leq	-436
▁than	-437
▁bet	-438
▁oper	-439
ose	-440
▁cell	-441
for	-442
$.	-443
▁gr	-444
our	-445
▁value	-446
rig	-447
▁cl	-448
▁ab	-449
gr	-450
ight	-451
▁play	-452
▁then	-453
▁list	-454
▁same	-455
▁-----	-456
cted	-457
▁int	-458
ations	-459
ween	-460
▁ret	-461
",	-462
▁dif	-463
▁between	-464
ie	-465
▁Sol	-466
ust	-467
▁return	-468
ack	-469
▁quer	-470
▁minimum	-471
▁wan	-472
:**	-473
ays	-474
▁Print	-475
▁maximum	-476
▁pair	-477
strain	-478
od	-479
ass	-480
▁2,	-481
ice	-482
ices	-483
▁repres	-484
▁des	-485
▁us	-486
▁-1	-487
ise	-488
les	-489
▁...,	-490
par	-491
straints	-492
3,	-493
▁Con	-494
▁He	-495
▁<=	-496
▁cases	-497
▁|	-498
its	-499
▁1.	-500
$,	-501
are	-502
▁differ	-503
▁elements	-504
▁does	-505
▁cor	-506
ints	-507
▁gu	-508
▁next	-509
out	-510
ary	-511
▁after	-512
cri	-513
ip	-514
▁me	-515
▁they	-516
▁dec	-517
▁wor	-518
ine	-519
▁ad	-520
000	-521
ask	-522
▁ed	-523
▁starting	-524
tal	-525
▁rem	-526
▁There	-527
▁K	-528
ure	-529
▁three	-530
ft	-531
ount	-532
▁need	-533
▁##	-534
):	-535
form	-536
wise	-537
image	-538
▁Th	-539
▁V	-540
ud	-541
right	-542
ges	-543
ates	-544
▁descri	-545
▁up	-546
ange	-547
lf	-548
▁prov	-549
ird	-550
▁mat	-551
▁set	-552
▁points	-553
▁exact	-554
▁more	-555
kes	-556
▁cho	-557
▁bl	-558
▁den	-559
aph	-560
ans	-561
gram	-562
▁game	-563
▁man	-564
▁total	-565
ower	-566
▁space	-567
▁position	-568
▁exactly	-569
parated	-570
▁kn	-571
▁12	-572
11	-573
▁pat	-574
▁its	-575
▁get	-576
▁inc	-577
ves	-578
▁en	-579
▁third	-580
▁but	-581
ize	-582
acters	-583
one	-584
ial	-585
▁move	-586
aran	-587
ort	-588
▁sc	-589
plan	-590
▁characters	-591
▁tree	-592
ict	-593
ps	-594
ren	-595
itive	-596
▁part	-597
alle	-598
▁make	-599
▁ap	-600
▁dig	-601
ss	-602
arante	-603
▁3,	-604
▁Constraints	-605
planation	-606
so	-607
ters	-608
▁guarante	-609
ya	-610
cc	-611
▁sample	-612
▁bec	-613
▁into	-614
very	-615
▁vert	-616
▁li	-617
▁z	-618
▁guaranteed	-619
▁ai	-620
ance	-621
▁div	-622
▁provided	-623
▁mult	-624
▁pr	-625
▁te	-626
imal	-627
99	-628
▁bu	-629
UT	-630
ile	-631
ous	-632
▁left	-633
▁program	-634
_1,	-635
▁spe	-636
▁row	-637
▁task	-638
▁different	-639
▁wants	-640
▁squ	-641
ues	-642
▁letters	-643
▁road	-644
▁$1	-645
imes	-646
▁positive	-647
▁q	-648
▁ty	-649
▁lo	-650
▁must	-651
▁Function	-652
▁.	-653
acter	-654
▁X	-655
▁know	-656
▁conne	-657
▁2.	-658
_1	-659
Ex	-660
ck	-661
▁day	-662
lp	-663
ors	-664
▁im	-665
ub	-666
▁form	-667
▁Solve	-668
ant	-669
▁their	-670
case	-671
▁consist	-672
-1	-673
ish	-674
self	-675
▁right	-676
▁{	-677
▁query	-678
▁consists	-679
5,	-680
▁out	-681
▁character	-682
oug	-683
▁requ	-684
▁point	-685
ess	-686
▁0.	-687
▁she	-688
able	-689
▁vertices	-690
▁strings	-691
▁was	-692
igh	-693
sider	-694
▁path	-695
▁end	-696
▁dat	-697
av	-698
▁multi	-699
▁your	-700
▁new	-701
▁str	-702
_2,	-703
4,	-704
ordin	-705
▁am	-706
▁20	-707
▁pre	-708
▁non	-709
ove	-710
▁ev	-711
▁subse	-712
".	-713
▁fl	-714
ound	-715
ok	-716
▁denot	-717
pos	-718
▁least	-719
▁values	-720
▁($	-721
_2	-722
itt	-723
▁every	-724
ES	-725
▁way	-726
ions	-727
▁may	-728
▁sm	-729
▁class	-730
▁operation	-731
▁che	-732
du	-733
tex	-734
▁choose	-735
▁exce	-736
inct	-737
▁him	-738
▁11	-739
pty	-740
00000000	-741
▁graph	-742
▁these	-743
dition	-744
ired	-745
ded	-746
cess	-747
▁element	-748
▁distinct	-749
ater	-750
ag	-751
▁10^5	-752
▁multiple	-753
▁car	-754
▁Then	-755
▁cont	-756
▁coordin	-757
rid	-758
▁inde	-759
},	-760
▁ob	-761
ild	-762
▁An	-763
▁Al	-764
▁1000	-765
▁Given	-766
own	-767
ins	-768
arg	-769
▁size	-770
▁city	-771
In	-772
▁stud	-773
▁em	-774
▁four	-775
▁when	-776
`.	-777
string	-778
▁most	-779
▁fri	-780
▁vertex	-781
cul	-782
yc	-783
▁dire	-784
▁represent	-785
▁use	-786
▁both	-787
▁operations	-788
ob	-789
ere	-790
▁many	-791
▁times	-792
▁mod	-793
▁consisting	-794
▁lower	-795
▁J	-796
▁Explanation	-797
ities	-798
ys	-799
term	-800
▁perform	-801
Output	-802
▁also	-803
ute	-804
▁par	-805
▁fin	-806
▁describ	-807
ctive	-808
▁15	-809
▁edges	-810
▁4,	-811
ick	-812
op	-813
au	-814
▁how	-815
ots	-816
▁init	-817
ough	-818
▁ind	-819
Input	-820
ry	-821
▁gre	-822
▁containing	-823
aa	-824
▁digits	-825
▁cost	-826
▁takes	-827
▁plan	-828
urren	-829
▁inter	-830
▁words	-831
▁result	-832
mut	-833
....	-834
▁seg	-835
▁spec	-836
',	-837
ign	-838
▁pairs	-839
PUT	-840
▁consider	-841
umn	-842
ars	-843
fore	-844
▁exceed	-845
alcul	-846
Example	-847
▁:	-848
pond	-849
▁zer	-850
ory	-851
▁square	-852
▁Format	-853
ither	-854
▁3.	-855
the	-856
▁who	-857
imit	-858
▁After	-859
ak	-860
▁column	-861
respond	-862
▁permut	-863
ock	-864
▁This	-865
▁correspond	-866
▁All	-867
▁\[	-868
▁type	-869
▁respe	-870
LE	-871
▁ass	-872
▁queries	-873
▁take	-874
▁pe	-875
▁dis	-876
▁wr	-877
\]	-878
▁10^9	-879
▁using	-880
▁turn	-881
AM	-882
▁cells	-883
▁index	-884
`,	-885
▁U	-886
ating	-887
▁count	-888
ix	-889
rix	-890
cd	-891
ical	-892
ff	-893
▁last	-894
▁color	-895
ative	-896
ption	-897
▁respective	-898
rect	-899
▁Solution	-900
▁over	-901
▁sat	-902
not	-903
▁So	-904
▁divis	-905
el	-906
▁denoting	-907
▁substring	-908
▁required	-909
ince	-910
▁word	-911
ends	-912
isf	-913
PLE	-914
▁follows	-915
AMPLE	-916
ra	-917
lu	-918
▁limit	-919
▁either	-920
ec	-921
▁1)	-922
separated	-923
▁connected	-924
▁distance	-925
▁calcul	-926
▁We	-927
ause	-928
▁doesn	-929
▁($1	-930
▁condition	-931
▁comm	-932
▁SAMPLE	-933
▁separated	-934
▁cities	-935
▁valid	-936
ari	-937
▁satisf	-938
▁arr	-939
▁YES	-940
▁respectively	-941
▁Let	-942
▁remain	-943
$)	-944
▁(0	-945
▁player	-946
()	-947
▁[1,	-948
▁----	-949
wn	-950
termine	-951
▁grou	-952
▁ste	-953
▁occ	-954
▁13	-955
▁comp	-956
▁decided	-957
▁edge	-958
ens	-959
▁numbered	-960
▁50	-961
▁>	-962
▁tri	-963
bo	-964
▁→	-965
▁opt	-966
▁long	-967
ning	-968
▁0,	-969
ople	-970
▁exists	-971
▁(2	-972
▁109	-973
].	-974
▁coordinates	-975
erse	-976
▁read	-977
▁lowercase	-978
▁bel	-979
val	-980
erson	-981
ied	-982
▁partic	-983
▁empty	-984
▁like	-985
12	-986
▁even	-987
▁How	-988
▁St	-989
▁5,	-990
ked	-991
▁------	-992
ever	-993
▁25	-994
▁permutation	-995
▁ke	-996
▁team	-997
▁letter	-998
▁less	-999
inary	-1000
▁sim	-1001
▁her	-1002
▁moves	-1003
reas	-1004
▁would	-1005
▁help	-1006
▁people	-1007
num	-1008
vel	-1009
ber	-1010
▁bi	-1011
▁correct	-1012
ially	-1013
arp	-1014
land	-1015
▁comple	-1016
▁$2	-1017
▁write	-1018
ular	-1019
ented	-1020
▁node	-1021
read	-1022
▁Vas	-1023
▁box	-1024
▁matrix	-1025
▁person	-1026
up	-1027
quen	-1028
output	-1029
▁zero	-1030
▁good	-1031
ets	-1032
▁seconds	-1033
king	-1034
row	-1035
##	-1036
aces	-1037
hes	-1038
▁⋅	-1039
▁want	-1040
other	-1041
array	-1042
app	-1043
▁Sample	-1044
▁very	-1045
▁nums	-1046
▁cannot	-1047
input	-1048
▁because	-1049
▁,	-1050
▁curren	-1051
▁cand	-1052
▁rec	-1053
▁amount	-1054
▁roads	-1055
▁win	-1056
▁NO	-1057
ctang	-1058
▁16	-1059
▁returns	-1060
▁mar	-1061
▁grid	-1062
ha	-1063
}$	-1064
▁means	-1065
▁initial	-1066
▁star	-1067
sive	-1068
▁data	-1069
▁state	-1070
▁days	-1071
ulo	-1072
▁Vasya	-1073
▁corresponding	-1074
▁First	-1075
▁otherwise	-1076
otes	-1077
▁rectang	-1078
ights	-1079
▁loc	-1080
▁change	-1081
▁As	-1082
$-	-1083
▁once	-1084
allest	-1085
▁To	-1086
▁10000	-1087
▁10^{	-1088
ways	-1089
▁sw	-1090
▁obtain	-1091
+1	-1092
▁Pol	-1093
▁000	-1094
des	-1095
▁Ne	-1096
▁$\	-1097
▁modulo	-1098
▁current	-1099
itten	-1100
▁ways	-1101
▁add	-1102
ail	-1103
▁(1,	-1104
▁what	-1105
que	-1106
▁friends	-1107
▁On	-1108
length	-1109
▁vis	-1110
▁Now	-1111
▁Help	-1112
^{	-1113
++	-1114
ov	-1115
▁quest	-1116
▁binary	-1117
▁pres	-1118
▁14	-1119
▁1:	-1120
▁score	-1121
▁Q	-1122
▁table	-1123
uring	-1124
▁written	-1125
▁Bob	-1126
▁However	-1127
▁produ	-1128
port	-1129
▁pass	-1130
▁room	-1131
ctions	-1132
▁smallest	-1133
ph	-1134
▁cre	-1135
▁`1	-1136
▁before	-1137
▁pie	-1138
▁needs	-1139
33	-1140
ner	-1141
▁105	-1142
▁determine	-1143
▁sever	-1144
\[	-1145
\],	-1146
▁Other	-1147
▁ac	-1148
__	-1149
ically	-1150
▁several	-1151
▁Find	-1152
with	-1153
▁name	-1154
▁always	-1155
▁/	-1156
ume	-1157
▁without	-1158
ycarp	-1159
▁appe	-1160
▁allow	-1161
▁another	-1162
bit	-1163
▁above	-1164
pected	-1165
ect	-1166
lish	-1167
▁Polycarp	-1168
og	-1169
cut	-1170
hen	-1171
▁about	-1172
▁Alice	-1173
▁trans	-1174
ique	-1175
▁top	-1176
▁description	-1177
tem	-1178
ides	-1179
▁30	-1180
▁larg	-1181
▁4.	-1182
edi	-1183
▁Otherwise	-1184
quences	-1185
indrom	-1186
▁python	-1187
inal	-1188
alled	-1189
▁datase	-1190
▁$(	-1191
▁check	-1192
alindrom	-1193
▁×	-1194
ull	-1195
▁nodes	-1196
▁br	-1197
gative	-1198
▁op	-1199
ost	-1200
▁thr	-1201
▁No	-1202
▁->	-1203
▁Che	-1204
▁considered	-1205
▁reach	-1206
ares	-1207
▁At	-1208
▁inclu	-1209
▁specif	-1210
utes	-1211
▁Eng	-1212
▁buy	-1213
▁ru	-1214
▁through	-1215
▁represents	-1216
stru	-1217
▁segment	-1218
possible	-1219
▁2:	-1220
▁ye	-1221
ik	-1222
▁English	-1223
▁students	-1224
▁don	-1225
arge	-1226
▁≠	-1227
▁build	-1228
ames	-1229
▁now	-1230
jac	-1231
reasing	-1232
▁ball	-1233
ting	-1234
6,	-1235
▁digit	-1236
▁down	-1237
▁defin	-1238
ithm	-1239
ouse	-1240
▁stre	-1241
▁represented	-1242
ands	-1243
secut	-1244
secutive	-1245
ility	-1246
ready	-1247
▁positions	-1248
▁beg	-1249
▁could	-1250
▁group	-1251
▁xi	-1252
▁process	-1253
▁height	-1254
▁already	-1255
ible	-1256
▁ent	-1257
led	-1258
▁called	-1259
▁fr	-1260
ax	-1261
▁greater	-1262
▁representing	-1263
ake	-1264
▁repl	-1265
tern	-1266
▁IN	-1267
ons	-1268
ives	-1269
▁used	-1270
ator	-1271
▁reg	-1272
▁pi	-1273
▁cards	-1274
jacent	-1275
gor	-1276
▁sele	-1277
▁weight	-1278
}.	-1279
▁while	-1280
▁calculate	-1281
omes	-1282
▁Ch	-1283
▁mon	-1284
orted	-1285
▁quotes	-1286
ener	-1287
▁particip	-1288
▁att	-1289
ately	-1290
ush	-1291
▁cir	-1292
▁pain	-1293
ank	-1294
7,	-1295
aut	-1296
▁were	-1297
▁put	-1298
ym	-1299
press	-1300
ious	-1301
dd	-1302
bab	-1303
▁show	-1304
graph	-1305
▁consecutive	-1306
cdot	-1307
▁$[	-1308
▁$1$	-1309
▁coins	-1310
▁Next	-1311
▁chang	-1312
▁black	-1313
▁Chef	-1314
▁orig	-1315
▁100000000	-1316
ced	-1317
without	-1318
▁OUT	-1319
▁INPUT	-1320
▁comput	-1321
▁described	-1322
▁typ	-1323
▁ri	-1324
▁ser	-1325
▁answers	-1326
▁large	-1327
▁conditions	-1328
▁OUTPUT	-1329
▁18	-1330
.0	-1331
▁red	-1332
▁pict	-1333
▁ti	-1334
▁ag	-1335
▁visit	-1336
2)	-1337
ats	-1338
▁di	-1339
▁palindrom	-1340
ants	-1341
▁",	-1342
1)	-1343
▁app	-1344
▁Pet	-1345
▁equals	-1346
▁optimal	-1347
▁rob	-1348
▁prime	-1349
▁short	-1350
▁When	-1351
▁pol	-1352
▁adjacent	-1353
▁level	-1354
air	-1355
▁unique	-1356
▁ins	-1357
66	-1358
▁indices	-1359
▁impossible	-1360
▁squares	-1361
hed	-1362
arget	-1363
▁id	-1364
▁child	-1365
▁mom	-1366
▁complete	-1367
▁allowed	-1368
▁item	-1369
▁range	-1370
old	-1371
▁200	-1372
▁One	-1373
ystem	-1374
▁becomes	-1375
▁small	-1376
ying	-1377
▁acc	-1378
▁rece	-1379
ient	-1380
eturn	-1381
▁rows	-1382
▁friend	-1383
▁Ar	-1384
▁rel	-1385
ee	-1386
▁Since	-1387
inc	-1388
▁beaut	-1389
red	-1390
==	-1391
▁starts	-1392
emory	-1393
ving	-1394
eters	-1395
▁power	-1396
▁whether	-1397
▁Return	-1398
▁direction	-1399
▁subarray	-1400
wor	-1401
▁stand	-1402
▁made	-1403
▁student	-1404
oo	-1405
▁fourth	-1406
uch	-1407
▁exist	-1408
▁remove	-1409
uck	-1410
ages	-1411
▁side	-1412
▁abs	-1413
▁call	-1414
vers	-1415
▁white	-1416
rees	-1417
▁subsequence	-1418
▁got	-1419
ield	-1420
▁found	-1421
18	-1422
▁just	-1423
▁er	-1424
ved	-1425
▁during	-1426
ending	-1427
▁largest	-1428
get	-1429
▁5.	-1430
▁been	-1431
▁difference	-1432
▁Wh	-1433
▁$3	-1434
▁inf	-1435
▁circ	-1436
▁sorted	-1437
▁indic	-1438
▁sa	-1439
▁But	-1440
▁17	-1441
▁segments	-1442
34	-1443
ograph	-1444
▁Petya	-1445
▁common	-1446
ott	-1447
▁off	-1448
▁(2,	-1449
▁2)	-1450
▁&	-1451
▁Here	-1452
▁types	-1453
ings	-1454
bol	-1455
▁area	-1456
▁columns	-1457
▁happ	-1458
▁ph	-1459
▁6,	-1460
plic	-1461
formation	-1462
nd	-1463
▁Time	-1464
▁mag	-1465
▁minutes	-1466
▁Ber	-1467
▁rest	-1468
20	-1469
▁card	-1470
oses	-1471
▁players	-1472
▁dele	-1473
▁remaining	-1474
▁spaces	-1475
▁board	-1476
▁cap	-1477
9999	-1478
ests	-1479
▁question	-1480
▁step	-1481
▁sk	-1482
▁among	-1483
ones	-1484
Explanation	-1485
▁flo	-1486
▁fe	-1487
oy	-1488
▁vari	-1489
osen	-1490
▁final	-1491
▁root	-1492
▁begin	-1493
eded	-1494
▁problems	-1495
▁probab	-1496
10^	-1497
▁Com	-1498
aced	-1499
▁mess	-1500
▁denotes	-1501
▁below	-1502
▁original	-1503
▁system	-1504
▁yi	-1505
side	-1506
xic	-1507
▁lead	-1508
olute	-1509
tr	-1510
▁target	-1511
▁De	-1512
▁They	-1513
▁-1.	-1514
rib	-1515
▁poly	-1516
cts	-1517
▁chosen	-1518
▁vi	-1519
empty	-1520
▁moment	-1521
▁give	-1522
▁jum	-1523
xicograph	-1524
▁dra	-1525
▁19	-1526
▁located	-1527
ier	-1528
▁house	-1529
100	-1530
▁Also	-1531
ittle	-1532
▁water	-1533
▁picture	-1534
▁cyc	-1535
'.	-1536
▁resulting	-1537
NO	-1538
arr	-1539
▁bott	-1540
▁lab	-1541
▁assign	-1542
▁==	-1543
way	-1544
ross	-1545
▁had	-1546
▁train	-1547
▁absolute	-1548
▁key	-1549
▁lexicograph	-1550
▁divisible	-1551
▁upper	-1552
▁gener	-1553
▁trave	-1554
))	-1555
▁work	-1556
igure	-1557
▁00	-1558
gorithm	-1559
▁inclusive	-1560
ures	-1561
▁And	-1562
▁[2,	-1563
ress	-1564
negative	-1565
aving	-1566
▁going	-1567
▁candies	-1568
ls	-1569
▁cut	-1570
▁Re	-1571
44	-1572
▁wins	-1573
oks	-1574
▁see	-1575
hi	-1576
▁sequences	-1577
▁ci	-1578
]`	-1579
ty	-1580
▁7.	-1581
▁special	-1582
▁wal	-1583
▁Two	-1584
bers	-1585
▁shown	-1586
▁longest	-1587
▁dep	-1588
▁hand	-1589
▁Expected	-1590
▁colors	-1591
▁under	-1592
],[	-1593
)$	-1594
▁algorithm	-1595
line	-1596
▁decimal	-1597
▁alph	-1598
]$	-1599
▁asked	-1600
andom	-1601
ep	-1602
▁cent	-1603
▁swap	-1604
text	-1605
▁Thus	-1606
iction	-1607
▁direct	-1608
▁contest	-1609
▁fact	-1610
▁shortest	-1611
▁needed	-1612
▁probability	-1613
▁ter	-1614
▁field	-1615
ldots	-1616
▁since	-1617
YES	-1618
▁back	-1619
▁round	-1620
▁programm	-1621
▁That	-1622
ken	-1623
▁price	-1624
1}	-1625
▁product	-1626
▁coordinate	-1627
▁defined	-1628
day	-1629
vious	-1630
▁dataset	-1631
Examples	-1632
","	-1633
▁$0	-1634
▁_	-1635
▁cour	-1636
rac	-1637
▁incre	-1638
iss	-1639
oney	-1640
▁colle	-1641
▁run	-1642
▁well	-1643
▁Yes	-1644
Note	-1645
▁robot	-1646
▁7,	-1647
▁interse	-1648
▁real	-1649
▁dest	-1650
atin	-1651
2}	-1652
▁occur	-1653
▁inv	-1654
▁assume	-1655
ymbol	-1656
▁blue	-1657
to	-1658
▁21	-1659
▁-2	-1660
▁Init	-1661
▁information	-1662
BB	-1663
com	-1664
ah	-1665
chie	-1666
▁spl	-1667
▁strict	-1668
ale	-1669
ently	-1670
▁palindrome	-1671
ror	-1672
▁initially	-1673
▁Un	-1674
ven	-1675
▁alphab	-1676
▁bus	-1677
rary	-1678
▁gets	-1679
ib	-1680
▁those	-1681
cting	-1682
dots	-1683
▁rectangle	-1684
▁steps	-1685
▁Se	-1686
▁24	-1687
alse	-1688
▁goes	-1689
▁Memory	-1690
▁again	-1691
icks	-1692
▁obtained	-1693
▁minimal	-1694
▁station	-1695
▁playing	-1696
ything	-1697
▁ends	-1698
sib	-1699
▁express	-1700
▁Stand	-1701
gy	-1702
▁..	-1703
▁look	-1704
ject	-1705
action	-1706
Con	-1707
▁odd	-1708
▁money	-1709
ia	-1710
▁knows	-1711
▁year	-1712
▁file	-1713
▁along	-1714
▁beginning	-1715
arn	-1716
▁40	-1717
lud	-1718
ased	-1719
);	-1720
co	-1721
▁Standard	-1722
▁stones	-1723
▁Consider	-1724
▁subset	-1725
▁Latin	-1726
▁cr	-1727
els	-1728
▁--	-1729
ording	-1730
▁increasing	-1731
▁sign	-1732
56	-1733
\],\[	-1734
2.	-1735
▁gir	-1736
▁achie	-1737
▁strictly	-1738
any	-1739
▁arrays	-1740
imize	-1741
zz	-1742
▁sn	-1743
▁100)	-1744
▁much	-1745
fl	-1746
nums	-1747
▁sl	-1748
▁vers	-1749
▁block	-1750
▁repe	-1751
asha	-1752
▁sets	-1753
▁Z	-1754
▁rules	-1755
▁present	-1756
OR	-1757
ples	-1758
▁23	-1759
ighb	-1760
▁`0	-1761
ought	-1762
▁replace	-1763
aper	-1764
▁500	-1765
▁6.	-1766
_#	-1767
▁able	-1768
ont	-1769
▁256	-1770
til	-1771
board	-1772
▁Berland	-1773
▁bit	-1774
▁text	-1775
▁statement	-1776
$).	-1777
▁solutions	-1778
▁remov	-1779
▁triang	-1780
▁coun	-1781
▁....	-1782
▁enc	-1783
▁10^5)	-1784
▁become	-1785
▁too	-1786
▁being	-1787
▁interval	-1788
▁whose	-1789
8,	-1790
ination	-1791
iful	-1792
▁Initially	-1793
bb	-1794
▁3)	-1795
▁piece	-1796
▁10^6	-1797
izes	-1798
▁She	-1799
▁99	-1800
▁neighb	-1801
▁draw	-1802
ized	-1803
ored	-1804
▁paren	-1805
ocks	-1806
ches	-1807
1]	-1808
▁pieces	-1809
▁?	-1810
ual	-1811
▁belong	-1812
Constraints	-1813
cy	-1814
▁course	-1815
▁[3,	-1816
idd	-1817
53	-1818
}{	-1819
xity	-1820
//	-1821
▁open	-1822
work	-1823
abc	-1824
▁random	-1825
▁units	-1826
▁match	-1827
▁cub	-1828
oring	-1829
▁bottom	-1830
min	-1831
tes	-1832
inite	-1833
pon	-1834
▁base	-1835
▁rot	-1836
▁jump	-1837
▁conc	-1838
▁travel	-1839
▁goal	-1840
▁10,	-1841
▁simple	-1842
1,2,	-1843
▁What	-1844
▁gives	-1845
▁substrings	-1846
_#_#	-1847
ert	-1848
▁eat	-1849
ness	-1850
▁256.0	-1851
▁boxes	-1852
arch	-1853
adi	-1854
▁eas	-1855
▁ident	-1856
▁Pro	-1857
▁likes	-1858
▁$2$	-1859
▁alphabet	-1860
kets	-1861
most	-1862
ift	-1863
▁pattern	-1864
▁appear	-1865
ata	-1866
angu	-1867
ze	-1868
ested	-1869
▁followed	-1870
▁Be	-1871
▁within	-1872
ink	-1873
po	-1874
▁own	-1875
▁itself	-1876
atch	-1877
frac	-1878
uous	-1879
ffic	-1880
▁beautiful	-1881
3)	-1882
▁av	-1883
▁paths	-1884
14	-1885
dire	-1886
▁(0,	-1887
▁true	-1888
▁luck	-1889
▁names	-1890
▁1-	-1891
▁create	-1892
acket	-1893
▁tell	-1894
idth	-1895
order	-1896
▁asks	-1897
▁circle	-1898
00000	-1899
▁constru	-1900
pace	-1901
▁items	-1902
▁diction	-1903
://	-1904
▁necess	-1905
▁town	-1906
pro	-1907
▁arbit	-1908
▁clos	-1909
▁groups	-1910
▁hour	-1911
▁satisfy	-1912
oh	-1913
ster	-1914
ful	-1915
▁22	-1916
▁Every	-1917
▁hor	-1918
▁conver	-1919
▁until	-1920
50	-1921
▁split	-1922
py	-1923
▁$4	-1924
▁langu	-1925
sibly	-1926
▁(3,	-1927
▁pick	-1928
▁lea	-1929
▁sold	-1930
▁plane	-1931
▁still	-1932
▁106	-1933
▁won	-1934
▁10^4	-1935
▁enough	-1936
ards	-1937
XX	-1938
plement	-1939
▁constraints	-1940
▁message	-1941
▁turns	-1942
AA	-1943
32	-1944
▁polyg	-1945
nt	-1946
ature	-1947
5)	-1948
▁addition	-1949
9,	-1950
▁chooses	-1951
^2	-1952
oted	-1953
ward	-1954
▁floor	-1955
▁having	-1956
cending	-1957
▁trees	-1958
▁8,	-1959
▁previous	-1960
ool	-1961
▁cross	-1962
▁mean	-1963
▁%	-1964
ilar	-1965
acks	-1966
▁deg	-1967
▁nor	-1968
▁(3	-1969
_3	-1970
▁infinite	-1971
·10	-1972
▁note	-1973
▁###	-1974
▁dr	-1975
ane	-1976
▁sort	-1977
ses	-1978
▁map	-1979
▁lengths	-1980
here	-1981
ike	-1982
ton	-1983
amp	-1984
▁speed	-1985
▁anything	-1986
=1	-1987
▁meet	-1988
ian	-1989
name	-1990
▁sent	-1991
▁symbol	-1992
▁describe	-1993
▁distrib	-1994
▁Comple	-1995
▁parts	-1996
luding	-1997
▁figure	-1998
ustom	-1999
arrow	-2000
▁acce	-2001
▁blocks	-2002
▁import	-2003
pend	-2004
▁tw	-2005
▁net	-2006
▁teams	-2007
sum	-2008
▁mem	-2009
▁country	-2010
▁100000	-2011
▁bre	-2012
▁sides	-2013
ertain	-2014
▁moving	-2015
agon	-2016
▁wall	-2017
▁zeros	-2018
▁separ	-2019
▁unit	-2020
▁inside	-2021
ade	-2022
▁diff	-2023
ood	-2024
aba	-2025
▁act	-2026
▁1000000000	-2027
77	-2028
▁leading	-2029
tun	-2030
▁proper	-2031
▁denote	-2032
sh	-2033
▁dri	-2034
▁occurren	-2035
pr	-2036
ics	-2037
64	-2038
[]	-2039
▁lucky	-2040
ops	-2041
▁el	-2042
▁select	-2043
▁que	-2044
▁Sub	-2045
▁60	-2046
>.	-2047
▁came	-2048
▁apply	-2049
▁appears	-2050
omin	-2051
ba	-2052
▁formed	-2053
})	-2054
medi	-2055
▁king	-2056
▁More	-2057
▁great	-2058
▁changes	-2059
▁home	-2060
▁000)	-2061
bs	-2062
▁Test	-2063
play	-2064
▁tow	-2065
▁bal	-2066
▁according	-2067
▁rev	-2068
cl	-2069
left	-2070
▁known	-2071
▁placed	-2072
▁testcase	-2073
▁pay	-2074
▁sup	-2075
78	-2076
▁pref	-2077
▁datasets	-2078
▁children	-2079
▁\{	-2080
ohn	-2081
▁paper	-2082
1111	-2083
sub	-2084
▁dictionary	-2085
▁loves	-2086
▁Tr	-2087
▁ext	-2088
ex	-2089
▁-3	-2090
▁inst	-2091
▁come	-2092
wik	-2093
▁error	-2094
▁divided	-2095
▁1]	-2096
▁custom	-2097
▁smaller	-2098
▁balls	-2099
▁26	-2100
▁prin	-2101
▁say	-2102
▁contin	-2103
tead	-2104
▁pile	-2105
▁ax	-2106
▁comb	-2107
be	-2108
ects	-2109
ines	-2110
▁song	-2111
1.	-2112
▁1000)	-2113
▁user	-2114
ath	-2115
esting	-2116
▁prof	-2117
ploy	-2118
asks	-2119
thing	-2120
arm	-2121
▁weights	-2122
▁strength	-2123
▁width	-2124
▁32	-2125
▁suit	-2126
ily	-2127
▁\(	-2128
▁hig	-2129
▁arrange	-2130
rd	-2131
RR	-2132
lic	-2133
▁ones	-2134
▁100,	-2135
▁1),	-2136
ockwise	-2137
▁ve	-2138
▁achieve	-2139
over	-2140
▁(10	-2141
ser	-2142
▁best	-2143
▁[1	-2144
▁optim	-2145
▁≥	-2146
anged	-2147
▁free	-2148
(1)	-2149
aby	-2150
▁variable	-2151
ams	-2152
▁radi	-2153
▁si	-2154
▁polygon	-2155
▁`[	-2156
▁immedi	-2157
2]	-2158
ders	-2159
ital	-2160
▁arbitrary	-2161
▁satisfies	-2162
imens	-2163
directed	-2164
▁Task	-2165
tunately	-2166
▁magic	-2167
▁relative	-2168
ole	-2169
hip	-2170
ores	-2171
▁\\	-2172
▁Num	-2173
▁certain	-2174
▁expected	-2175
1,1,	-2176
15	-2177
iers	-2178
rightarrow	-2179
ared	-2180
▁109)	-2181
▁shop	-2182
con	-2183
▁fav	-2184
▁arri	-2185
▁company	-2186
▁participants	-2187
ailable	-2188
▁hol	-2189
alf	-2190
ameter	-2191
▁3:	-2192
▁cover	-2193
ivers	-2194
▁0)	-2195
▁bracket	-2196
ocol	-2197
▁programming	-2198
iness	-2199
ctor	-2200
▁$3$	-2201
gg	-2202
▁104	-2203
times	-2204
ci	-2205
ili	-2206
ash	-2207
▁hold	-2208
bles	-2209
ric	-2210
▁stop	-2211
▁light	-2212
ually	-2213
ameters	-2214
▁book	-2215
▁self	-2216
25	-2217
van	-2218
▁leq	-2219
▁independ	-2220
▁sur	-2221
****	-2222
▁1:**	-2223
▁define	-2224
list	-2225
▁meg	-2226
▁network	-2227
0,0,	-2228
possibly	-2229
▁64	-2230
101	-2231
▁uppercase	-2232
▁increase	-2233
tt	-2234
▁route	-2235
▁spend	-2236
code	-2237
▁whole	-2238
??	-2239
▁fre	-2240
eng	-2241
▁questions	-2242
>>	-2243
30	-2244
ery	-2245
▁9,	-2246
▁^	-2247
of	-2248
▁cle	-2249
▁wond	-2250
max	-2251
▁divide	-2252
pose	-2253
▁«	-2254
aur	-2255
▁"1	-2256
▁sit	-2257
▁shows	-2258
att	-2259
▁expression	-2260
owers	-2261
▁particular	-2262
verage	-2263
▁painted	-2264
-1,	-2265
▁big	-2266
ouses	-2267
chool	-2268
▁2:**	-2269
.,	-2270
▁Can	-2271
▁hard	-2272
▁wi	-2273
▁representation	-2274
ptions	-2275
ific	-2276
▁chocol	-2277
▁horiz	-2278
null	-2279
▁employ	-2280
abytes	-2281
▁bar	-2282
82	-2283
▁undirected	-2284
mally	-2285
▁building	-2286
acher	-2287
▁megabytes	-2288
▁center	-2289
imak	-2290
▁rooms	-2291
▁$5	-2292
▁Little	-2293
ills	-2294
▁conf	-2295
▁Therefore	-2296
▁girl	-2297
-1}	-2298
▁compet	-2299
▁2000	-2300
▁Val	-2301
▁doll	-2302
▁negative	-2303
(1	-2304
▁available	-2305
▁John	-2306
0.	-2307
icult	-2308
▁prefix	-2309
ined	-2310
▁makes	-2311
ny	-2312
▁stone	-2313
▁minute	-2314
])	-2315
mon	-2316
▁//	-2317
("	-2318
aten	-2319
▁“	-2320
htt	-2321
cre	-2322
cks	-2323
▁transform	-2324
▁1}	-2325
▁winner	-2326
▁attack	-2327
▁immediately	-2328
▁log	-2329
▁term	-2330
▁sell	-2331
▁chess	-2332
▁Complexity	-2333
▁divisor	-2334
▁stations	-2335
▁instead	-2336
arily	-2337
▁Im	-2338
▁Determine	-2339
▁Limak	-2340
jects	-2341
▁computer	-2342
':	-2343
▁optimally	-2344
▁triangle	-2345
▁Le	-2346
#.	-2347
itting	-2348
▁never	-2349
▁{1,	-2350
▁[[	-2351
gether	-2352
▁delete	-2353
▁paralle	-2354
▁specific	-2355
akes	-2356
▁bro	-2357
uzz	-2358
▁105)	-2359
▁subsequences	-2360
▁easy	-2361
xi	-2362
▁did	-2363
▁occup	-2364
▁stra	-2365
22	-2366
▁rep	-2367
▁costs	-2368
▁job	-2369
▁together	-2370
▁image	-2371
▁2-	-2372
▁del	-2373
16	-2374
aaaa	-2375
ults	-2376
▁300	-2377
▁lot	-2378
na	-2379
▁interesting	-2380
▁Formally	-2381
][	-2382
▁connecting	-2383
▁paint	-2384
▁lit	-2385
\}	-2386
▁–	-2387
▁remainder	-2388
▁partition	-2389
▁}	-2390
▁little	-2391
ilt	-2392
▁main	-2393
▁ener	-2394
col	-2395
▁difficult	-2396
▁finish	-2397
dex	-2398
No	-2399
▁occurs	-2400
(1,	-2401
▁standing	-2402
▁`'	-2403
anced	-2404
▁stack	-2405
▁2]	-2406
▁green	-2407
▁XOR	-2408
gan	-2409
▁instru	-2410
▁rectangular	-2411
▁ascending	-2412
▁teacher	-2413
▁fam	-2414
▁holds	-2415
ived	-2416
▁enter	-2417
▁twice	-2418
▁Space	-2419
▁houses	-2420
▁reverse	-2421
=2	-2422
anks	-2423
▁walk	-2424
ima	-2425
iving	-2426
▁Sh	-2427
▁abc	-2428
iguous	-2429
als	-2430
▁participant	-2431
▁straight	-2432
13	-2433
▁suc	-2434
▁event	-2435
7.	-2436
▁1).	-2437
iting	-2438
▁cycle	-2439
▁parameters	-2440
▁90	-2441
▁version	-2442
23	-2443
▁why	-2444
▁meth	-2445
fect	-2446
fe	-2447
etic	-2448
ape	-2449
▁display	-2450
)`	-2451
▁school	-2452
▁"0	-2453
▁Some	-2454
▁matter	-2455
fortunately	-2456
▁Mr	-2457
▁separate	-2458
▁maximal	-2459
▁corner	-2460
▁28	-2461
▁pack	-2462
▁land	-2463
____	-2464
▁store	-2465
000,	-2466
▁1.0	-2467
▁tiles	-2468
ka	-2469
▁".	-2470
ances	-2471
my	-2472
ument	-2473
▁taken	-2474
▁lists	-2475
▁half	-2476
...,	-2477
▁sizes	-2478
▁`"	-2479
▁Case	-2480
▁satisfying	-2481
▁might	-2482
▁results	-2483
▁average	-2484
▁boy	-2485
▁energy	-2486
▁receive	-2487
▁Bo	-2488
▁vol	-2489
less	-2490
▁tem	-2491
mod	-2492
ww	-2493
▁added	-2494
number	-2495
▁mark	-2496
▁subt	-2497
▁high	-2498
▁marked	-2499
90	-2500
▁miss	-2501
ify	-2502
▁sure	-2503
▁[0,	-2504
▁Of	-2505
▁ui	-2506
▁selected	-2507
▁rearr	-2508
▁determ	-2509
ather	-2510
####	-2511
++++	-2512
▁hero	-2513
▁looks	-2514
▁full	-2515
▁remem	-2516
▁2.0	-2517
▁peri	-2518
▁fall	-2519
▁world	-2520
▁five	-2521
man	-2522
lusive	-2523
▁10^{5	-2524
▁built	-2525
▁phot	-2526
uration	-2527
▁search	-2528
▁break	-2529
▁4)	-2530
▁intersection	-2531
▁performed	-2532
▁capital	-2533
▁regular	-2534
amed	-2535
▁month	-2536
$),	-2537
▁language	-2538
▁pur	-2539
▁corresponds	-2540
▁10^9)	-2541
ux	-2542
▁subseg	-2543
->	-2544
▁Ivan	-2545
▁coin	-2546
▁10.	-2547
▁Cre	-2548
AB	-2549
▁guess	-2550
▁fight	-2551
orm	-2552
uation	-2553
▁share	-2554
Yes	-2555
▁around	-2556
0)	-2557
▁domin	-2558
lo	-2559
ST	-2560
ites	-2561
▁games	-2562
ounds	-2563
▁printed	-2564
▁(4,	-2565
inks	-2566
3333	-2567
▁describing	-2568
ova	-2569
ark	-2570
▁front	-2571
▁descriptions	-2572
▁spell	-2573
▁food	-2574
▁old	-2575
▁permutations	-2576
▁sche	-2577
ament	-2578
▁These	-2579
▁Ai	-2580
rop	-2581
74	-2582
▁tasks	-2583
▁factor	-2584
▁wa	-2585
▁queue	-2586
▁radius	-2587
▁started	-2588
▁Rec	-2589
▁pop	-2590
▁connects	-2591
▁destro	-2592
era	-2593
▁ask	-2594
atur	-2595
▁bag	-2596
▁exam	-2597
▁beauty	-2598
▁performing	-2599
▁la	-2600
▁vertical	-2601
▁minimize	-2602
▁concaten	-2603
▁convert	-2604
▁street	-2605
▁favor	-2606
dec	-2607
▁rectangles	-2608
cture	-2609
55	-2610
▁Ass	-2611
▁During	-2612
▁fif	-2613
▁decre	-2614
uth	-2615
▁exper	-2616
▁candy	-2617
<=	-2618
icket	-2619
▁tu	-2620
ped	-2621
▁2),	-2622
acing	-2623
▁3]	-2624
▁turned	-2625
▁reac	-2626
uff	-2627
▁[4,	-2628
▁restaur	-2629
▁uses	-2630
▁hours	-2631
24	-2632
▁directed	-2633
▁chip	-2634
")	-2635
▁5000	-2636
orts	-2637
▁places	-2638
omet	-2639
▁stru	-2640
▁numer	-2641
▁fifth	-2642
ontal	-2643
▁planet	-2644
▁bur	-2645
▁exec	-2646
pan	-2647
▁organ	-2648
▁keys	-2649
▁Second	-2650
▁gl	-2651
index	-2652
▁Subt	-2653
▁-4	-2654
▁8.	-2655
=3	-2656
oman	-2657
▁Do	-2658
▁ang	-2659
hest	-2660
▁9.	-2661
me	-2662
▁removed	-2663
▁puzz	-2664
▁interested	-2665
▁soldiers	-2666
▁assigned	-2667
illed	-2668
▁Ad	-2669
▁himself	-2670
▁42	-2671
▁changed	-2672
▁perfect	-2673
3]	-2674
$$	-2675
▁expl	-2676
IN	-2677
▁cubes	-2678
▁101	-2679
iversity	-2680
▁Unfortunately	-2681
▁colored	-2682
-1)	-2683
box	-2684
▁specified	-2685
▁except	-2686
zer	-2687
▁door	-2688
arl	-2689
▁six	-2690
▁super	-2691
▁Vova	-2692
▁disc	-2693
▁my	-2694
pted	-2695
+2	-2696
iding	-2697
xx	-2698
▁Dima	-2699
▁27	-2700
▁larger	-2701
▁satisfied	-2702
dom	-2703
▁pot	-2704
ithmetic	-2705
cases	-2706
_{2	-2707
▁fi	-2708
▁occurrences	-2709
▁leaves	-2710
<<	-2711
▁isn	-2712
▁\[\[	-2713
▁36	-2714
=[	-2715
▁else	-2716
abb	-2717
▁learn	-2718
▁monster	-2719
](	-2720
▁require	-2721
▁favorite	-2722
▁Sim	-2723
▁indicates	-2724
▁gave	-2725
ply	-2726
19	-2727
":	-2728
▁independent	-2729
▁---	-2730
▁similar	-2731
▁□	-2732
ashi	-2733
▁correspondingly	-2734
▁removing	-2735
▁stands	-2736
▁fix	-2737
▁Mon	-2738
▁ki	-2739
▁watch	-2740
▁rating	-2741
ody	-2742
▁Aux	-2743
▁111	-2744
▁directly	-2745
▁cook	-2746
▁contiguous	-2747
▁By	-2748
▁\)	-2749
that	-2750
https	-2751
▁suitable	-2752
oper	-2753
▁important	-2754
▁away	-2755
▁du	-2756
ping	-2757
▁named	-2758
▁based	-2759
4)	-2760
76	-2761
▁wind	-2762
▁enem	-2763
000000	-2764
hemat	-2765
1},	-2766
▁destination	-2767
▁!	-2768
▁finds	-2769
alth	-2770
▁books	-2771
▁events	-2772
▁compute	-2773
▁ship	-2774
▁horizontal	-2775
54	-2776
ads	-2777
airs	-2778
▁ticket	-2779
▁Tak	-2780
▁piles	-2781
▁meters	-2782
▁implement	-2783
▁Create	-2784
}$.	-2785
ady	-2786
2,3,	-2787
▁fore	-2788
▁)	-2789
▁cat	-2790
ND	-2791
▁repeated	-2792
▁thus	-2793
ention	-2794
▁parameter	-2795
▁prep	-2796
acci	-2797
▁location	-2798
edia	-2799
ai	-2800
iddle	-2801
idden	-2802
▁0.5	-2803
▁command	-2804
▁Am	-2805
▁said	-2806
▁few	-2807
ron	-2808
▁strate	-2809
▁matches	-2810
▁divisors	-2811
▁low	-2812
iliary	-2813
▁greatest	-2814
▁parallel	-2815
]]	-2816
onacci	-2817
▁clockwise	-2818
▁connect	-2819
▁making	-2820
▁zeroes	-2821
▁arg	-2822
where	-2823
▁party	-2824
velop	-2825
oes	-2826
▁flip	-2827
ience	-2828
▁cow	-2829
▁sticks	-2830
10^9	-2831
ource	-2832
ountain	-2833
ods	-2834
▁heights	-2835
▁Ste	-2836
▁desired	-2837
anc	-2838
ified	-2839
▁[5,	-2840
▁meaning	-2841
▁division	-2842
▁insert	-2843
ished	-2844
fficient	-2845
▁Pe	-2846
▁directions	-2847
valid	-2848
▁bitwise	-2849
▁destroy	-2850
▁pen	-2851
▁currently	-2852
ional	-2853
omb	-2854
▁["	-2855
▁pix	-2856
▁method	-2857
▁Auxiliary	-2858
98	-2859
reen	-2860
▁leave	-2861
▁section	-2862
posed	-2863
▁coinc	-2864
ele	-2865
▁subarrays	-2866
▁arithmetic	-2867
▁describes	-2868
▁Problem	-2869
ling	-2870
▁received	-2871
6666	-2872
▁necessary	-2873
flush	-2874
set	-2875
▁arranged	-2876
ury	-2877
ug	-2878
▁met	-2879
ney	-2880
▁$4$	-2881
▁years	-2882
▁candid	-2883
▁stay	-2884
▁happy	-2885
CD	-2886
▁false	-2887
ek	-2888
1,2	-2889
▁balanced	-2890
▁customer	-2891
points	-2892
▁knight	-2893
▁press	-2894
▁cast	-2895
▁success	-2896
ference	-2897
LL	-2898
▁AB	-2899
▁45	-2900
▁apples	-2901
▁Mike	-2902
▁MB	-2903
▁ref	-2904
▁keep	-2905
▁visited	-2906
▁better	-2907
▁bought	-2908
aps	-2909
▁100).	-2910
▁island	-2911
decreasing	-2912
▁our	-2913
▁List	-2914
▁109).	-2915
▁underst	-2916
room	-2917
no	-2918
10,	-2919
gress	-2920
▁period	-2921
bf	-2922
▁medi	-2923
▁maximize	-2924
org	-2925
▁bad	-2926
▁duplic	-2927
ization	-2928
oday	-2929
ipedia	-2930
▁Both	-2931
▁sentence	-2932
▁inputs	-2933
sword	-2934
([	-2935
▁pri	-2936
▁-5	-2937
▁parenthe	-2938
▁2^	-2939
▁rule	-2940
iew	-2941
lt	-2942
▁4]	-2943
▁Subtask	-2944
ana	-2945
28	-2946
▁necessarily	-2947
dule	-2948
▁really	-2949
▁comes	-2950
▁formally	-2951
353	-2952
$;	-2953
▁Number	-2954
▁working	-2955
▁brid	-2956
ibonacci	-2957
▁doc	-2958
▁Po	-2959
▁mer	-2960
▁junction	-2961
▁symbols	-2962
▁competition	-2963
ru	-2964
▁tourn	-2965
▁diagon	-2966
gt	-2967
▁overl	-2968
▁triple	-2969
▁000,	-2970
▁80	-2971
▁dev	-2972
▁compon	-2973
▁love	-2974
▁dollars	-2975
ahashi	-2976
▁bir	-2977
▁None	-2978
inclusive	-2979
▁⊕	-2980
▁none	-2981
▁String	-2982
ously	-2983
irt	-2984
olog	-2985
▁marks	-2986
▁Sn	-2987
cret	-2988
WW	-2989
quent	-2990
▁profit	-2991
▁Hence	-2992
40	-2993
forces	-2994
▁Today	-2995
▁members	-2996
1010	-2997
posite	-2998
|,	-2999
dict	-3000
plied	-3001
▁replaced	-3002
matrix	-3003
`:	-3004
equ	-3005
▁yet	-3006
3456	-3007
let	-3008
▁entire	-3009
▁actions	-3010
▁dimens	-3011
▁Des	-3012
▁page	-3013
▁respon	-3014
▁Use	-3015
▁const	-3016
▁degrees	-3017
math	-3018
sters	-3019
▁mathemat	-3020
70	-3021
gn	-3022
▁35	-3023
lex	-3024
▁chocolate	-3025
3}	-3026
▁True	-3027
pec	-3028
▁01	-3029
▁button	-3030
▁series	-3031
▁mode	-3032
▁structure	-3033
_4	-3034
▁sitting	-3035
▁testcases	-3036
====	-3037
▁denoted	-3038
tract	-3039
ja	-3040
_#_#_#_#	-3041
▁played	-3042
▁highest	-3043
ows	-3044
▁tournament	-3045
▁subtree	-3046
/2	-3047
▁calculated	-3048
▁bank	-3049
ecution	-3050
▁2·10	-3051
▁prefer	-3052
▁middle	-3053
▁105).	-3054
▁intervals	-3055
mit	-3056
▁altern	-3057
▁Takahashi	-3058
▁'1	-3059
1],	-3060
-2	-3061
75	-3062
ords	-3063
anger	-3064
000000000	-3065
▁upd	-3066
AT	-3067
acity	-3068
▁scores	-3069
▁3),	-3070
(2)	-3071
▁handle	-3072
▁extra	-3073
▁parent	-3074
▁stri	-3075
▁tour	-3076
▁earn	-3077
▁outputs	-3078
osing	-3079
▁frequen	-3080
▁wonder	-3081
▁lib	-3082
inations	-3083
ality	-3084
')	-3085
ultane	-3086
ten	-3087
▁stick	-3088
▁rank	-3089
▁air	-3090
▁fun	-3091
▁revers	-3092
▁strategy	-3093
▁ordered	-3094
▁took	-3095
▁swit	-3096
▁simultane	-3097
\]\]	-3098
avers	-3099
▁formul	-3100
▁exc	-3101
▁loses	-3102
ences	-3103
▁King	-3104
▁10^5,	-3105
ava	-3106
▁collect	-3107
▁arrangement	-3108
aries	-3109
uc	-3110
zero	-3111
gs	-3112
sid	-3113
60	-3114
▁region	-3115
apping	-3116
▁cake	-3117
▁reads	-3118
aring	-3119
ifts	-3120
ails	-3121
ackets	-3122
▁art	-3123
(2,	-3124
uel	-3125
▁lay	-3126
▁mach	-3127
▁dam	-3128
Im	-3129
80	-3130
def	-3131
▁cur	-3132
body	-3133
▁indicating	-3134
▁belongs	-3135
▁plays	-3136
▁3-	-3137
▁Execution	-3138
8244	-3139
▁definition	-3140
▁linked	-3141
ients	-3142
pi	-3143
▁getting	-3144
▁Pl	-3145
▁date	-3146
rol	-3147
▁His	-3148
▁shape	-3149
▁7).	-3150
▁tests	-3151
▁(1≤	-3152
▁ID	-3153
▁5]	-3154
▁prices	-3155
▁happen	-3156
▁bul	-3157
▁specifier	-3158
alculate	-3159
▁treas	-3160
▁pairwise	-3161
▁counter	-3162
▁grow	-3163
▁........	-3164
▁soon	-3165
▁Sasha	-3166
▁encry	-3167
▁works	-3168
▁34	-3169
▁puzzle	-3170
>,	-3171
▁done	-3172
ries	-3173
▁recently	-3174
wiki	-3175
▁examples	-3176
▁secret	-3177
▁deliv	-3178
ger	-3179
▁swe	-3180
▁progress	-3181
▁temper	-3182
▁aa	-3183
▁vow	-3184
asure	-3185
▁choice	-3186
▁fill	-3187
▁degree	-3188
rew	-3189
by	-3190
▁cout	-3191
▁nothing	-3192
plus	-3193
▁cars	-3194
▁$10	-3195
▁simultaneously	-3196
▁config	-3197
▁try	-3198
▁tile	-3199
wh	-3200
▁64-	-3201
▁memory	-3202
ON	-3203
wikipedia	-3204
ators	-3205
▁restaurant	-3206
▁chef	-3207
▁jo	-3208
ald	-3209
10^5	-3210
▁address	-3211
▁5)	-3212
▁Figure	-3213
▁Max	-3214
▁health	-3215
▁31	-3216
▁ever	-3217
▁taking	-3218
▁leaf	-3219
nce	-3220
▁ith	-3221
(()	-3222
▁deck	-3223
▁flush	-3224
▁iter	-3225
0]	-3226
▁'0	-3227
▁trip	-3228
oves	-3229
▁roll	-3230
▁distribution	-3231
ctional	-3232
▁redu	-3233
:00	-3234
▁shift	-3235
▁$[1,	-3236
▁sums	-3237
▁post	-3238
izz	-3239
▁33	-3240
▁stat	-3241
▁cit	-3242
88	-3243
▁pas	-3244
uments	-3245
▁10^5$)	-3246
▁summ	-3247
YY	-3248
**.	-3249
aaa	-3250
aw	-3251
▁functions	-3252
▁subsets	-3253
▁liters	-3254
▁outside	-3255
▁label	-3256
▁lives	-3257
▁median	-3258
The	-3259
▁volume	-3260
ear	-3261
▁Valera	-3262
▁axis	-3263
ounded	-3264
▁enemy	-3265
▁changing	-3266
▁counted	-3267
▁Rem	-3268
stac	-3269
▁kind	-3270
▁explanation	-3271
99999999	-3272
79	-3273
▁construct	-3274
▁requests	-3275
word	-3276
aver	-3277
▁False	-3278
▁bid	-3279
▁Polycarpus	-3280
zy	-3281
▁Alex	-3282
▁1000000007	-3283
ij	-3284
uri	-3285
arth	-3286
▁cin	-3287
▁exit	-3288
▁closed	-3289
▁generate	-3290
▁generated	-3291
▁notes	-3292
ouble	-3293
▁week	-3294
▁fraction	-3295
▁$0$	-3296
▁Implement	-3297
▁Bes	-3298
lock	-3299
neq	-3300
▁kil	-3301
▁develop	-3302
▁send	-3303
▁Cho	-3304
▁songs	-3305
8244353	-3306
▁men	-3307
▁levels	-3308
▁gift	-3309
▁quite	-3310
▁anc	-3311
▁flowers	-3312
▁Fo	-3313
▁0).	-3314
▁adding	-3315
▁additional	-3316
21	-3317
▁bound	-3318
▁Assume	-3319
▁scen	-3320
_0	-3321
▁solved	-3322
_.	-3323
▁begins	-3324
oid	-3325
▁‘	-3326
▁across	-3327
▁fru	-3328
▁subsegment	-3329
indexed	-3330
▁ign	-3331
log	-3332
▁thinks	-3333
Sample	-3334
tle	-3335
ister	-3336
4]	-3337
▁forward	-3338
bc	-3339
▁created	-3340
▁mountain	-3341
▁gold	-3342
rote	-3343
▁phone	-3344
kn	-3345
▁challe	-3346
▁10^{18	-3347
'`	-3348
▁birth	-3349
▁10^{9	-3350
▁cou	-3351
▁cube	-3352
urther	-3353
▁jour	-3354
▁capacity	-3355
atural	-3356
▁bits	-3357
ched	-3358
▁rounds	-3359
▁winning	-3360
dig	-3361
▁object	-3362
▁throw	-3363
▁stops	-3364
anges	-3365
▁scient	-3366
▁fit	-3367
▁gen	-3368
▁finally	-3369
ees	-3370
▁100.	-3371
▁orders	-3372
oss	-3373
▁Masha	-3374
▁employee	-3375
ason	-3376
add	-3377
▁vill	-3378
DD	-3379
▁wrote	-3380
▁others	-3381
▁cup	-3382
▁intersect	-3383
▁identical	-3384
▁Calculate	-3385
▁action	-3386
▁neighboring	-3387
point	-3388
▁remember	-3389
▁manag	-3390
ctors	-3391
aster	-3392
ecause	-3393
▁10^5.	-3394
▁equation	-3395
▁including	-3396
▁jury	-3397
▁circles	-3398
▁1000000	-3399
iset	-3400
▁$6	-3401
▁-1,	-3402
MM	-3403
5.	-3404
▁1≤	-3405
▁(-	-3406
leep	-3407
▁tic	-3408
▁near	-3409
▁hack	-3410
▁citiz	-3411
+1}	-3412
▁Ele	-3413
▁swaps	-3414
▁fixed	-3415
▁From	-3416
++.	-3417
+3	-3418
▁skill	-3419
use	-3420
▁standard	-3421
▁obstac	-3422
ited	-3423
plate	-3424
xy	-3425
atures	-3426
▁magical	-3427
▁70	-3428
▁Co	-3429
lands	-3430
aug	-3431
plication	-3432
▁rearrange	-3433
▁pictures	-3434
▁woman	-3435
"]	-3436
▁lost	-3437
▁gard	-3438
▁request	-3439
▁formula	-3440
ahub	-3441
▁notation	-3442
▁Iahub	-3443
▁1$	-3444
▁multiset	-3445
▁angle	-3446
_1$	-3447
▁constant	-3448
---	-3449
▁rock	-3450
▁contained	-3451
lad	-3452
▁monsters	-3453
▁carry	-3454
▁1000,	-3455
▁hit	-3456
ife	-3457
▁tower	-3458
▁Mish	-3459
▁calls	-3460
▁\[1,	-3461
=4	-3462
▁machine	-3463
▁care	-3464
▁tank	-3465
▁higher	-3466
▁languages	-3467
▁completely	-3468
ains	-3469
▁wrong	-3470
ision	-3471
uke	-3472
▁programmer	-3473
▁det	-3474
▁scenari	-3475
▁quick	-3476
1\]	-3477
▁123	-3478
\,	-3479
▁conve	-3480
prime	-3481
ponent	-3482
▁screen	-3483
\\	-3484
.)	-3485
omial	-3486
af	-3487
▁ban	-3488
▁war	-3489
NA	-3490
ko	-3491
▁include	-3492
ems	-3493
▁dishes	-3494
+7	-3495
CC	-3496
+1)	-3497
▁assum	-3498
▁messages	-3499
▁29	-3500
▁applying	-3501
CM	-3502
▁doing	-3503
az	-3504
▁xor	-3505
3,4,	-3506
▁went	-3507
▁Fibonacci	-3508
▁coincide	-3509
(2	-3510
▁New	-3511
sure	-3512
▁Te	-3513
▁jumps	-3514
▁situation	-3515
▁frequency	-3516
▁Choose	-3517
▁Ger	-3518
▁occupied	-3519
▁complexity	-3520
▁library	-3521
▁ill	-3522
isted	-3523
ior	-3524
▁night	-3525
▁burles	-3526
▁Pr	-3527
▁indicated	-3528
ties	-3529
▁Ark	-3530
aks	-3531
▁1],	-3532
▁Once	-3533
69	-3534
▁covered	-3535
17	-3536
▁999	-3537
agram	-3538
('	-3539
▁105`	-3540
▁apple	-3541
▁safe	-3542
▁bidire	-3543
▁design	-3544
]`.	-3545
lld	-3546
▁animal	-3547
▁didn	-3548
time	-3549
including	-3550
▁damage	-3551
▁12,	-3552
▁purch	-3553
▁hi	-3554
▁journey	-3555
▁checks	-3556
▁server	-3557
ball	-3558
▁natural	-3559
▁("	-3560
St	-3561
▁$,	-3562
▁north	-3563
II	-3564
▁project	-3565
▁source	-3566
oon	-3567
alent	-3568
▁report	-3569
▁army	-3570
▁Recently	-3571
▁`0`	-3572
▁please	-3573
▁2],	-3574
▁adv	-3575
▁origin	-3576
yr	-3577
▁`2	-3578
▁4:	-3579
--------	-3580
▁rail	-3581
▁seats	-3582
▁exp	-3583
▁document	-3584
▁opposite	-3585
▁($2	-3586
[1]	-3587
▁response	-3588
2],	-3589
▁]	-3590
▁tickets	-3591
▁11,	-3592
▁math	-3593
▁coll	-3594
▁birthday	-3595
▁today	-3596
0000000000	-3597
▁preferred	-3598
ishes	-3599
3.	-3600
▁ide	-3601
▁Not	-3602
▁trying	-3603
▁($0	-3604
cise	-3605
ency	-3606
▁fro	-3607
▁4),	-3608
▁depth	-3609
oplus	-3610
from	-3611
1:	-3612
▁chessboard	-3613
eled	-3614
▁Ke	-3615
plot	-3616
▁yes	-3617
▁105,	-3618
▁variables	-3619
known	-3620
▁110	-3621
▁4-	-3622
▁fuel	-3623
▁(4	-3624
▁(109	-3625
▁included	-3626
▁Ap	-3627
▁travers	-3628
io	-3629
inter	-3630
▁everyone	-3631
▁routes	-3632
▁understand	-3633
84	-3634
▁Arkady	-3635
▁restr	-3636
▁robots	-3637
▁lowest	-3638
teger	-3639
▁towns	-3640
▁young	-3641
▁temperature	-3642
▁snake	-3643
▁decide	-3644
cular	-3645
ER	-3646
▁overlap	-3647
▁track	-3648
▁Sc	-3649
▁plot	-3650
straint	-3651
▁instructions	-3652
111	-3653
▁('	-3654
▁lie	-3655
▁islands	-3656
OI	-3657
▁provide	-3658
place	-3659
▁`(	-3660
anging	-3661
▁commands	-3662
ighted	-3663
▁kingdom	-3664
▁walking	-3665
▁aj	-3666
▁increases	-3667
anya	-3668
▁treasure	-3669
▁gcd	-3670
▁cycles	-3671
▁passeng	-3672
89	-3673
▁Sup	-3674
▁snow	-3675
aj	-3676
▁rooted	-3677
br	-3678
▁exch	-3679
▁mov	-3680
▁schedule	-3681
cription	-3682
GG	-3683
▁movement	-3684
▁forest	-3685
▁photo	-3686
itor	-3687
vert	-3688
▁2).	-3689
▁Cl	-3690
▁depart	-3691
wards	-3692
▁things	-3693
▁dividing	-3694
▁2^{	-3695
ina	-3696
qr	-3697
▁bidirectional	-3698
**:	-3699
▁(|	-3700
5]	-3701
▁es	-3702
mbox	-3703
dimens	-3704
▁yen	-3705
ners	-3706
▁kin	-3707
▁Is	-3708
▁meets	-3709
▁removes	-3710
ulation	-3711
▁occurrence	-3712
sel	-3713
▁{2,	-3714
oded	-3715
▁Any	-3716
▁maze	-3717
▁Similar	-3718
▁clar	-3719
▁fire	-3720
▁$.	-3721
▁accepted	-3722
▁however	-3723
▁Qu	-3724
▁$1$.	-3725
pre	-3726
▁dish	-3727
▁combinations	-3728
▁running	-3729
▁eng	-3730
▁member	-3731
▁far	-3732
▁=>	-3733
▁measure	-3734
▁vector	-3735
▁yellow	-3736
▁termin	-3737
▁assignment	-3738
▁Java	-3739
▁blanks	-3740
▁club	-3741
▁correctly	-3742
▁minim	-3743
▁Sum	-3744
chn	-3745
odes	-3746
▁password	-3747
▁employees	-3748
swer	-3749
▁Sere	-3750
▁subject	-3751
▁hu	-3752
ocarp	-3753
▁fast	-3754
▁Vlad	-3755
00,	-3756
▁"2	-3757
▁token	-3758
words	-3759
▁arc	-3760
▁commun	-3761
dimensional	-3762
▁labeled	-3763
sc	-3764
345678	-3765
▁accept	-3766
amps	-3767
▁106)	-3768
▁-->	-3769
▁:=	-3770
otal	-3771
}\	-3772
anta	-3773
▁entr	-3774
="	-3775
59	-3776
idi	-3777
▁quant	-3778
full	-3779
▁seat	-3780
▁hence	-3781
▁pan	-3782
quare	-3783
▁Monocarp	-3784
color	-3785
▁indexes	-3786
▁dice	-3787
▁3:**	-3788
▁face	-3789
▁sun	-3790
ised	-3791
▁104`	-3792
▁diagonal	-3793
ral	-3794
▁distribute	-3795
▁Gre	-3796
67	-3797
len	-3798
▁transport	-3799
▁decides	-3800
ires	-3801
▁shuff	-3802
▁happiness	-3803
textbf	-3804
▁gover	-3805
▁visits	-3806
nomial	-3807
orrect	-3808
▁collection	-3809
▁solving	-3810
▁Suppose	-3811
▁0),	-3812
ected	-3813
1,1	-3814
▁ring	-3815
▁htt	-3816
ming	-3817
▁properties	-3818
▁looking	-3819
▁difficulty	-3820
men	-3821
▁Snuke	-3822
▁Similarly	-3823
SS	-3824
▁sheet	-3825
▁####	-3826
▁interact	-3827
▁drawn	-3828
▁Ser	-3829
▁remains	-3830
▁choosing	-3831
▁busy	-3832
llo	-3833
▁compress	-3834
▁mist	-3835
▁`1`	-3836
▁nice	-3837
▁Tem	-3838
▁east	-3839
▁govern	-3840
▁brackets	-3841
▁batt	-3842
ki	-3843
▁eval	-3844
▁10^{5}	-3845
▁plans	-3846
▁maxim	-3847
▁huge	-3848
enerate	-3849
_3,	-3850
▁live	-3851
▁0.0	-3852
pts	-3853
▁-10	-3854
▁defe	-3855
▁mention	-3856
▁jud	-3857
▁think	-3858
▁$$	-3859
▁'0'	-3860
▁writing	-3861
▁rid	-3862
value	-3863
▁users	-3864
ification	-3865
▁$1$,	-3866
▁mass	-3867
▁1018	-3868
▁parentheses	-3869
▁En	-3870
▁foot	-3871
▁held	-3872
▁statements	-3873
▁$5$	-3874
▁est	-3875
▁filled	-3876
|)	-3877
▁produce	-3878
▁distances	-3879
▁continuous	-3880
▁Beaver	-3881
▁training	-3882
▁receives	-3883
▁record	-3884
▁ice	-3885
▁mi	-3886
▁dog	-3887
▁planets	-3888
]$.	-3889
met	-3890
▁With	-3891
▁1;	-3892
▁pages	-3893
▁something	-3894
▁3],	-3895
▁crossro	-3896
coordin	-3897
▁44	-3898
▁Only	-3899
▁returned	-3900
▁strange	-3901
▁eats	-3902
▁though	-3903
ustr	-3904
▁drink	-3905
26	-3906
oot	-3907
▁relations	-3908
▁wonders	-3909
fully	-3910
go	-3911
▁glass	-3912
▁office	-3913
▁'.	-3914
▁dimensions	-3915
▁lies	-3916
▁clear	-3917
▁Igor	-3918
}$,	-3919
57	-3920
▁Tree	-3921
▁west	-3922
start	-3923
iel	-3924
▁wanted	-3925
▁execut	-3926
▁appro	-3927
▁Gr	-3928
▁university	-3929
▁polynomial	-3930
book	-3931
▁coe	-3932
▁reaches	-3933
=0	-3934
▁Em	-3935
▁garden	-3936
alk	-3937
▁ho	-3938
li	-3939
▁$(1,	-3940
▁property	-3941
▁option	-3942
▁instruction	-3943
▁reading	-3944
angle	-3945
▁Sereja	-3946
▁OR	-3947
((	-3948
*.	-3949
▁files	-3950
\].	-3951
iter	-3952
▁arrow	-3953
▁Santa	-3954
▁anal	-3955
▁resid	-3956
▁beh	-3957
▁Description	-3958
yp	-3959
▁pixels	-3960
▁1000).	-3961
▁10^5).	-3962
▁chain	-3963
cent	-3964
▁Andrew	-3965
▁Peter	-3966
▁sal	-3967
▁rese	-3968
ison	-3969
▁leftmost	-3970
▁ful	-3971
▁determined	-3972
▁3).	-3973
iply	-3974
▁configuration	-3975
▁manner	-3976
▁flights	-3977
▁requirements	-3978
▁aw	-3979
▁experim	-3980
ometimes	-3981
ours	-3982
▁1},	-3983
▁aff	-3984
Image	-3985
▁∑	-3986
lue	-3987
▁directory	-3988
▁famous	-3989
▁decrease	-3990
▁lock	-3991
ned	-3992
_{1},	-3993
▁20,	-3994
▁kill	-3995
▁balance	-3996
▁Min	-3997
▁"-1	-3998
▁vide	-3999
ey	-4000
▁hidden	-4001
abab	-4002
:-----	-4003
▁became	-4004
▁later	-4005
▁Man	-4006
▁stage	-4007
▁Heidi	-4008
▁998244353	-4009
▁printing	-4010
▁invalid	-4011
_{1,	-4012
ils	-4013
▁(5,	-4014
key	-4015
under	-4016
▁missing	-4017
ora	-4018
rodu	-4019
iform	-4020
▁powers	-4021
User	-4022
▁ending	-4023
▁While	-4024
▁view	-4025
▁ing	-4026
2),	-4027
acaba	-4028
▁subtract	-4029
=1}	-4030
▁Oly	-4031
istance	-4032
▁junctions	-4033
▁AND	-4034
▁instance	-4035
▁products	-4036
raw	-4037
29	-4038
37	-4039
▁ca	-4040
▁tuple	-4041
▁::	-4042
▁elect	-4043
▁rotated	-4044
clockwise	-4045
jo	-4046
▁closest	-4047
▁hands	-4048
_{1}	-4049
▁streams	-4050
house	-4051
▁applied	-4052
▁popular	-4053
▁50)	-4054
▁Template	-4055
▁Sm	-4056
arest	-4057
AC	-4058
▁109,	-4059
▁passed	-4060
▁bridge	-4061
▁endpoints	-4062
▁deleted	-4063
▁Its	-4064
▁bear	-4065
▁close	-4066
{\	-4067
▁cats	-4068
▁park	-4069
▁reached	-4070
digit	-4071
0000000	-4072
▁border	-4073
ello	-4074
000$	-4075
atter	-4076
▁(`	-4077
▁100`	-4078
▁100$)	-4079
▁$|	-4080
▁customers	-4081
▁2·	-4082
-6	-4083
_{2}	-4084
▁fulf	-4085
_2$	-4086
position	-4087
▁ann	-4088
▁girls	-4089
cover	-4090
▁displayed	-4091
▁aut	-4092
39	-4093
▁elev	-4094
▁suff	-4095
▁continue	-4096
▁thought	-4097
▁palindromic	-4098
▁moved	-4099
ony	-4100
36	-4101
▁randomly	-4102
ective	-4103
▁states	-4104
▁sorting	-4105
▁finding	-4106
▁painting	-4107
▁400	-4108
Sum	-4109
flo	-4110
▁gas	-4111
▁due	-4112
acts	-4113
▁restore	-4114
▁circular	-4115
▁NOT	-4116
▁Gerald	-4117
▁`-1	-4118
▁ak	-4119
▁writes	-4120
▁10^9$)	-4121
▁10^4$)	-4122
▁invers	-4123
}(	-4124
▁corrid	-4125
▁activ	-4126
▁rotate	-4127
apan	-4128
▁prom	-4129
▁Because	-4130
umer	-4131
□□	-4132
sian	-4133
▁20.	-4134
▁skills	-4135
ilities	-4136
1),	-4137
▁fence	-4138
▁ingred	-4139
▁drive	-4140
roll	-4141
▁Me	-4142
▁108	-4143
▁Ver	-4144
numbers	-4145
▁indexed	-4146
ability	-4147
▁quickly	-4148
▁against	-4149
▁mor	-4150
▁duration	-4151
www	-4152
urtle	-4153
▁120	-4154
phant	-4155
▁10^9).	-4156
▁mir	-4157
▁constructed	-4158
BW	-4159
▁DNA	-4160
▁objects	-4161
iverse	-4162
axis	-4163
▁strong	-4164
▁State	-4165
ounts	-4166
▁guests	-4167
▁abb	-4168
▁∈	-4169
▁buildings	-4170
▁window	-4171
▁sleep	-4172
▁chocolates	-4173
▁calculates	-4174
▁touch	-4175
▁lights	-4176
path	-4177
▁combination	-4178
▁terms	-4179
List	-4180
estor	-4181
▁С	-4182
1`	-4183
atform	-4184
▁candidate	-4185
▁shelf	-4186
▁performance	-4187
sp	-4188
▁organiz	-4189
▁Among	-4190
dout	-4191
▁kinds	-4192
▁doors	-4193
cal	-4194
▁catch	-4195
alindrome	-4196
▁prepare	-4197
▁classes	-4198
arded	-4199
▁wearing	-4200
▁'1'	-4201
numpy	-4202
."	-4203
▁Node	-4204
▁vowels	-4205
rong	-4206
▁tra	-4207
3,4	-4208
▁10^4)	-4209
▁bring	-4210
\{	-4211
ushroom	-4212
▁matching	-4213
▁earl	-4214
▁$7	-4215
▁clean	-4216
▁skip	-4217
▁erase	-4218
▁12.	-4219
▁triangles	-4220
▁neither	-4221
▁Ph	-4222
▁towers	-4223
▁giving	-4224
true	-4225
▁nearest	-4226
▁entrance	-4227
ludes	-4228
▁concatenation	-4229
!"	-4230
▁axes	-4231
▁puts	-4232
data	-4233
▁et	-4234
gcd	-4235
aro	-4236
▁sections	-4237
|.	-4238
sequence	-4239
▁Fin	-4240
▁1<=	-4241
2,3	-4242
▁citizens	-4243
▁forms	-4244
▁factorial	-4245
▁Dr	-4246
▁Acc	-4247
vi	-4248
▁49	-4249
ese	-4250
_{2},	-4251
▁convex	-4252
▁deal	-4253
more	-4254
imits	-4255
lect	-4256
▁vectors	-4257
gin	-4258
▁п	-4259
▁cyclic	-4260
▁Follow	-4261
▁Stepan	-4262
▁011	-4263
}}	-4264
▁palindromes	-4265
ma	-4266
▁equiv	-4267
▁government	-4268
▁past	-4269
▁(5	-4270
yes	-4271
)$.	-4272
▁requires	-4273
▁54	-4274
▁Addition	-4275
▁norm	-4276
▁techn	-4277
Sub	-4278
▁double	-4279
▁stock	-4280
▁race	-4281
▁gifts	-4282
▁uniform	-4283
-3	-4284
▁neighbors	-4285
▁1].	-4286
▁update	-4287
_0,	-4288
riend	-4289
▁locations	-4290
problem	-4291
▁Spec	-4292
▁sug	-4293
▁Anton	-4294
ged	-4295
▁sy	-4296
▁hole	-4297
iced	-4298
▁pun	-4299
▁tries	-4300
▁mill	-4301
▁48	-4302
rame	-4303
rm	-4304
▁nested	-4305
▁vice	-4306
=5	-4307
▁options	-4308
▁ant	-4309
▁Count	-4310
▁driver	-4311
▁includes	-4312
▁convers	-4313
▁meeting	-4314
▁mentioned	-4315
▁platform	-4316
kens	-4317
SC	-4318
▁multiply	-4319
▁3000	-4320
▁Leha	-4321
▁finished	-4322
▁battle	-4323
\},	-4324
▁offer	-4325
▁Vertex	-4326
#..	-4327
▁scientists	-4328
▁computers	-4329
cket	-4330
▁rout	-4331
▁obser	-4332
▁happens	-4333
▁Per	-4334
resh	-4335
eds	-4336
▁__	-4337
▁hum	-4338
test	-4339
10^{	-4340
ler	-4341
▁Day	-4342
▁push	-4343
ymmet	-4344
▁thing	-4345
▁University	-4346
orld	-4347
▁ware	-4348
▁1000`	-4349
▁suffix	-4350
▁identif	-4351
tons	-4352
▁fish	-4353
123	-4354
▁$1\	-4355
▁ground	-4356
AG	-4357
▁river	-4358
▁leg	-4359
▁prints	-4360
▁hist	-4361
▁cows	-4362
▁pn	-4363
▁pup	-4364
ms	-4365
▁forget	-4366
▁diameter	-4367
like	-4368
ups	-4369
58	-4370
reased	-4371
▁account	-4372
▁numpy	-4373
uses	-4374
1,3	-4375
underline	-4376
▁completed	-4377
▁divides	-4378
▁Moreover	-4379
cept	-4380
▁vertexes	-4381
ational	-4382
▁communic	-4383
ident	-4384
▁http	-4385
▁Japan	-4386
oci	-4387
++++++++	-4388
nge	-4389
▁passes	-4390
▁98	-4391
▁frog	-4392
▁says	-4393
▁remembers	-4394
div	-4395
▁morning	-4396
selves	-4397
target	-4398
▁broken	-4399
▁movie	-4400
▁counts	-4401
▁ready	-4402
▁lose	-4403
0,1	-4404
▁model	-4405
▁scenario	-4406
▁learned	-4407
▁finite	-4408
▁Us	-4409
▁spends	-4410
izza	-4411
nel	-4412
apped	-4413
▁wait	-4414
▁illustr	-4415
▁0-	-4416
▁len	-4417
▁argument	-4418
SE	-4419
ris	-4420
▁mushroom	-4421
▁webs	-4422
operator	-4423
▁According	-4424
▁bored	-4425
▁tun	-4426
▁switch	-4427
▁55	-4428
▁told	-4429
cript	-4430
}).	-4431
9.	-4432
pect	-4433
aught	-4434
▁boys	-4435
grid	-4436
▁10^3	-4437
▁deliver	-4438
▁almost	-4439
▁allows	-4440
▁dots	-4441
▁150	-4442
▁blank	-4443
!!	-4444
unch	-4445
▁components	-4446
▁evalu	-4447
^^	-4448
▁prepar	-4449
▁repeat	-4450
▁mus	-4451
▁various	-4452
▁save	-4453
▁Read	-4454
▁adds	-4455
actions	-4456
▁drop	-4457
▁Before	-4458
=1,	-4459
▁progression	-4460
plies	-4461
▁tuples	-4462
▁projects	-4463
▁1`	-4464
▁knights	-4465
▁Fl	-4466
▁rather	-4467
bolds	-4468
boldsymbol	-4469
▁IP	-4470
▁[2	-4471
teland	-4472
▁tokens	-4473
▁See	-4474
▁operator	-4475
RA	-4476
▁-6	-4477
apes	-4478
▁bill	-4479
"`	-4480
▁performs	-4481
viously	-4482
▁Line	-4483
▁depending	-4484
▁sec	-4485
▁versions	-4486
▁servers	-4487
oops	-4488
▁rubles	-4489
4}	-4490
both	-4491
▁themselves	-4492
▁din	-4493
▁simply	-4494
▁everything	-4495
root	-4496
▁labels	-4497
covered	-4498
▁ge	-4499
▁Finally	-4500
▁entered	-4501
dy	-4502
▁bas	-4503
vin	-4504
▁proced	-4505
▁exceeding	-4506
7)	-4507
▁Oper	-4508
▁3·10	-4509
+1,	-4510
-10	-4511
▁anagram	-4512
▁often	-4513
[2]	-4514
▁$2$,	-4515
▁hun	-4516
▁control	-4517
miss	-4518
▁10^6)	-4519
▁living	-4520
▁tele	-4521
{(	-4522
▁unus	-4523
▁fil	-4524
▁aba	-4525
essor	-4526
▁runs	-4527
▁cuts	-4528
▁therefore	-4529
▁Besides	-4530
▁Play	-4531
ense	-4532
olution	-4533
lete	-4534
iminal	-4535
▁etc	-4536
you	-4537
▁chest	-4538
OO	-4539
▁repeating	-4540
TT	-4541
operatorname	-4542
▁clock	-4543
▁City	-4544
PC	-4545
▁experiment	-4546
▁Pos	-4547
ambo	-4548
▁eff	-4549
▁100),	-4550
▁longer	-4551
ussian	-4552
▁105),	-4553
▁$[2,	-4554
▁versa	-4555
▁10)	-4556
▁component	-4557
▁inser	-4558
▁rat	-4559
▁>>>	-4560
▁arguments	-4561
texttt	-4562
▁exchange	-4563
▁46	-4564
▁Taro	-4565
▁fair	-4566
▁family	-4567
▁contr	-4568
▁infinitely	-4569
3,2,	-4570
4.	-4571
▁""	-4572
ried	-4573
▁soldier	-4574
▁\[2,	-4575
▁cry	-4576
▁sweets	-4577
_5	-4578
non	-4579
▁seen	-4580
ained	-4581
▁species	-4582
▁village	-4583
▁gar	-4584
▁ju	-4585
▁apart	-4586
▁port	-4587
▁samples	-4588
▁candidates	-4589
▁equivalent	-4590
▁wiz	-4591
▁guest	-4592
▁decreases	-4593
▁clim	-4594
count	-4595
▁2}	-4596
quad	-4597
▁impro	-4598
▁span	-4599
▁reversed	-4600
▁normal	-4601
leg	-4602
▁tie	-4603
▁5),	-4604
▁duplicate	-4605
▁hex	-4606
▁triples	-4607
▁coming	-4608
▁decreasing	-4609
ros	-4610
▁egg	-4611
▁prote	-4612
duct	-4613
▁recur	-4614
▁np	-4615
▁device	-4616
EX	-4617
▁further	-4618
▁smart	-4619
▁criminal	-4620
▁buttons	-4621
fa	-4622
▁dominoes	-4623
▁towards	-4624
▁vac	-4625
see	-4626
leet	-4627
▁flag	-4628
▁flower	-4629
▁lamps	-4630
▁variants	-4631
▁bj	-4632
▁opponent	-4633
▁"`	-4634
▁bomb	-4635
▁Den	-4636
which	-4637
▁scale	-4638
▁Johnny	-4639
▁las	-4640
+7.	-4641
▁fly	-4642
▁indiv	-4643
▁pipe	-4644
▁deleting	-4645
▁$\{	-4646
▁belie	-4647
appe	-4648
head	-4649
PP	-4650
ouring	-4651
▁domino	-4652
▁vertically	-4653
▁Sw	-4654
▁contests	-4655
▁stair	-4656
init	-4657
▁59	-4658
cies	-4659
▁factors	-4660
▁charge	-4661
▁loops	-4662
▁1000.	-4663
▁47	-4664
▁1/	-4665
(3,	-4666
▁Jack	-4667
▁shoot	-4668
▁1'	-4669
interse	-4670
','	-4671
▁bambo	-4672
▁regions	-4673
▁Ciel	-4674
▁15,	-4675
upper	-4676
▁cable	-4677
▁har	-4678
▁bulbs	-4679
▁warehouse	-4680
**,	-4681
▁offic	-4682
▁50,	-4683
based	-4684
▁Data	-4685
▁11.	-4686
pa	-4687
▁pract	-4688
▁subsegments	-4689
▁ep	-4690
▁trail	-4691
▁modified	-4692
▁lexicographical	-4693
2:	-4694
▁[7,	-4695
Num	-4696
itu	-4697
▁individ	-4698
▁determines	-4699
▁106).	-4700
RL	-4701
▁copy	-4702
▁waiting	-4703
▁\{1,	-4704
;&	-4705
▁floors	-4706
<<<<	-4707
▁spaceship	-4708
ream	-4709
▁≦	-4710
hab	-4711
bal	-4712
loops	-4713
oud	-4714
▁109),	-4715
wer	-4716
▁listed	-4717
tion	-4718
▁elevator	-4719
▁ra	-4720
▁Add	-4721
▁pub	-4722
aking	-4723
▁south	-4724
▁\[1,2,	-4725
▁\;	-4726
substring	-4727
▁associ	-4728
▁ensure	-4729
▁independently	-4730
01	-4731
▁56	-4732
host	-4733
▁38	-4734
chan	-4735
EF	-4736
▁compan	-4737
▁Ins	-4738
▁reachable	-4739
▁74	-4740
▁=====	-4741
▁presented	-4742
▁trains	-4743
▁1234	-4744
▁actually	-4745
▁specificator	-4746
cher	-4747
▁xn	-4748
=2,	-4749
▁symmet	-4750
▁engine	-4751
▁Year	-4752
face	-4753
▁43	-4754
▁flight	-4755
▁$0$.	-4756
▁walls	-4757
▁introdu	-4758
ogram	-4759
▁37	-4760
6)	-4761
qrt	-4762
▁reason	-4763
▁phr	-4764
▁idea	-4765
▁regard	-4766
▁Byteland	-4767
▁dress	-4768
▁kid	-4769
▁∑_{	-4770
▁flat	-4771
▁arrive	-4772
▁votes	-4773
▁expressed	-4774
▁4).	-4775
false	-4776
▁autom	-4777
arning	-4778
bed	-4779
▁blackboard	-4780
▁sand	-4781
+4	-4782
▁neck	-4783
ources	-4784
ength	-4785
IT	-4786
",".	-4787
▁noticed	-4788
▁possibly	-4789
▁Elephant	-4790
▁orange	-4791
▁.....	-4792
▁encoded	-4793
▁incorrect	-4794
▁Col	-4795
▁precise	-4796
▁bacter	-4797
▁mind	-4798
▁Ro	-4799
▁(10^	-4800
▁rotation	-4801
▁life	-4802
ky	-4803
▁challenge	-4804
▁existing	-4805
come	-4806
▁construction	-4807
▁opened	-4808
\;	-4809
▁010	-4810
▁link	-4811
▁presents	-4812
cr	-4813
alty	-4814
▁52	-4815
▁video	-4816
-1$	-4817
▁")	-4818
▁10^5$.	-4819
▁dem	-4820
▁"?	-4821
▁compar	-4822
▁intern	-4823
▁41	-4824
ype	-4825
Hello	-4826
***	-4827
uts	-4828
ulti	-4829
▁prepared	-4830
▁39	-4831
▁photos	-4832
▁achieved	-4833
▁loop	-4834
▁participate	-4835
▁chose	-4836
▁traversal	-4837
▁duplicates	-4838
ories	-4839
▁aij	-4840
=====	-4841
▁website	-4842
▁clarity	-4843
rot	-4844
▁$2$.	-4845
▁heap	-4846
ipher	-4847
000,000,	-4848
▁discovered	-4849
yy	-4850
▁sought	-4851
▁package	-4852
▁selects	-4853
armer	-4854
▁mix	-4855
▁trad	-4856
▁shirt	-4857
2},	-4858
▁pixel	-4859
_2)	-4860
bidden	-4861
▁age	-4862
▁boat	-4863
-2,	-4864
▁bars	-4865
▁reduce	-4866
▁Om	-4867
▁Mat	-4868
Frame	-4869
names	-4870
char	-4871
0,0	-4872
▁serv	-4873
▁с	-4874
▁Misha	-4875
........	-4876
sie	-4877
reat	-4878
▁rate	-4879
oding	-4880
▁ir	-4881
▁hill	-4882
▁areas	-4883
▁wire	-4884
ids	-4885
▁$$$	-4886
▁castle	-4887
amond	-4888
▁3}	-4889
top	-4890
▁procedure	-4891
irus	-4892
▁ans	-4893
▁records	-4894
+5	-4895
8.	-4896
▁ran	-4897
▁acqu	-4898
ider	-4899
▁disappe	-4900
istics	-4901
▁tells	-4902
▁plant	-4903
2...	-4904
▁cele	-4905
▁danger	-4906
▁destroyed	-4907
▁hote	-4908
▁neckl	-4909
tell	-4910
▁Three	-4911
▁tired	-4912
▁purchase	-4913
▁JOI	-4914
▁cnt	-4915
▁marbles	-4916
▁seven	-4917
▁Her	-4918
-4	-4919
▁50.	-4920
cow	-4921
'`,	-4922
▁['	-4923
▁alphabets	-4924
2):	-4925
▁atom	-4926
▁aren	-4927
▁Bi	-4928
▁opening	-4929
▁composed	-4930
ogn	-4931
▁jumping	-4932
0000000000000000	-4933
rices	-4934
wars	-4935
▁sou	-4936
▁feed	-4937
sort	-4938
▁quality	-4939
▁trick	-4940
6}	-4941
ining	-4942
iled	-4943
▁Bar	-4944
[0]	-4945
begin	-4946
▁Four	-4947
▁attend	-4948
rel	-4949
imeter	-4950
▁Total	-4951
joy	-4952
▁traffic	-4953
EN	-4954
▁"0"	-4955
▁Pas	-4956
▁Inter	-4957
38	-4958
SCII	-4959
span	-4960
{1}	-4961
9)	-4962
▁coloring	-4963
▁efficient	-4964
▁Comput	-4965
ye	-4966
▁brother	-4967
▁horse	-4968
▁encryption	-4969
▁nth	-4970
▁11111	-4971
▁leaving	-4972
ipes	-4973
▁bn	-4974
▁buying	-4975
mpi	-4976
▁consecutively	-4977
▁transformed	-4978
▁$(2,	-4979
alend	-4980
27	-4981
pet	-4982
▁0;	-4983
ety	-4984
▁`[1,	-4985
▁cop	-4986
▁[3	-4987
▁aaa	-4988
▁considering	-4989
coordinate	-4990
▁picks	-4991
▁someone	-4992
Time	-4993
▁Complete	-4994
▁beat	-4995
▁multiplication	-4996
▁$(1	-4997
▁instant	-4998
▁cups	-4999
▁10^9+7.	-5000
but	-5001
▁mistake	-5002
0,1,	-5003
001	-5004
mm	-5005
▁6)	-5006
■■	-5007
▁Div	-5008
").	-5009
то	-5010
▁celebr	-5011
ontally	-5012
ended	-5013
osh	-5014
35	-5015
aim	-5016
▁gems	-5017
▁pawn	-5018
ential	-5019
sem	-5020
▁$8	-5021
▁grade	-5022
▁moments	-5023
ensitive	-5024
▁World	-5025
▁favou	-5026
itude	-5027
▁2].	-5028
aded	-5029
ority	-5030
▁GCD	-5031
▁180	-5032
()`	-5033
-1.	-5034
▁subsequent	-5035
▁breaks	-5036
apers	-5037
NN	-5038
▁imp	-5039
▁animals	-5040
integer	-5041
ember	-5042
▁-9	-5043
two	-5044
conne	-5045
▁register	-5046
▁signal	-5047
▁5:	-5048
▁bricks	-5049
(3)	-5050
▁cookies	-5051
▁equip	-5052
▁transfer	-5053
▁cream	-5054
▁danc	-5055
che	-5056
▁2$	-5057
▁arrives	-5058
abbit	-5059
▁general	-5060
▁signs	-5061
uo	-5062
▁band	-5063
▁capt	-5064
()()	-5065
uy	-5066
▁favourite	-5067
▁counting	-5068
IC	-5069
useum	-5070
AL	-5071
4,5,	-5072
▁simpl	-5073
▁invented	-5074
▁camp	-5075
▁toys	-5076
▁Recall	-5077
45	-5078
por	-5079
▁Numbers	-5080
bi	-5081
ext	-5082
ube	-5083
subarray	-5084
▁!=	-5085
aab	-5086
oons	-5087
▁maintain	-5088
▁Notice	-5089
▁forbidden	-5090
▁shall	-5091
lib	-5092
2`	-5093
▁"\]	-5094
▁successful	-5095
▁Ge	-5096
▁Inna	-5097
▁Returns	-5098
▁chips	-5099
alendar	-5100
▁intersections	-5101
▁6]	-5102
Ar	-5103
even	-5104
erial	-5105
itle	-5106
▁reorder	-5107
▁museum	-5108
ifically	-5109
ox	-5110
▁Har	-5111
▁[6,	-5112
▁fruits	-5113
▁1000$)	-5114
▁7)	-5115
▁movements	-5116
▁soc	-5117
apple	-5118
▁predict	-5119
dle	-5120
▁da	-5121
floor	-5122
▁flow	-5123
▁13,	-5124
▁couldn	-5125
2).	-5126
▁leader	-5127
▁esc	-5128
▁constraint	-5129
▁'.'	-5130
(0,	-5131
ona	-5132
▁Additionally	-5133
imeters	-5134
▁denomin	-5135
file	-5136
▁'*	-5137
▁sixth	-5138
ological	-5139
▁Smart	-5140
▁shove	-5141
▁invol	-5142
ration	-5143
lack	-5144
▁pill	-5145
▁accepts	-5146
▁buys	-5147
▁parking	-5148
▁spent	-5149
▁theory	-5150
»,	-5151
▁4],	-5152
▁planning	-5153
▁Pascal	-5154
▁ten	-5155
▁obstacles	-5156
yz	-5157
sis	-5158
▁rounded	-5159
▁inequ	-5160
_2,...,	-5161
▁998244353.	-5162
off	-5163
AN	-5164
bd	-5165
▁cakes	-5166
itions	-5167
▁primes	-5168
▁faces	-5169
▁ut	-5170
each	-5171
▁mission	-5172
▁bacteria	-5173
codewars	-5174
there	-5175
HH	-5176
▁arbitr	-5177
▁till	-5178
▁dete	-5179
ounter	-5180
▁sugges	-5181
▁Poke	-5182
▁tourist	-5183
▁wondering	-5184
▁epis	-5185
▁hall	-5186
▁quad	-5187
▁-8	-5188
▁uns	-5189
▁infected	-5190
▁tram	-5191
square	-5192
▁princess	-5193
▁alternating	-5194
▁lap	-5195
revi	-5196
▁Move	-5197
▁je	-5198
▁{{	-5199
▁weighted	-5200
31	-5201
▁99999	-5202
▁conven	-5203
▁horizontally	-5204
▁ancestor	-5205
palindrome	-5206
▁listen	-5207
▁backward	-5208
▁rain	-5209
▁saw	-5210
▁Name	-5211
▁hits	-5212
▁Xen	-5213
▁toy	-5214
▁10^9),	-5215
lav	-5216
▁indicate	-5217
ien	-5218
▁blocked	-5219
urious	-5220
▁ABC	-5221
1000	-5222
▁cart	-5223
▁obstacle	-5224
▁arrival	-5225
▁inversions	-5226
▁spells	-5227
new	-5228
▁forg	-5229
▁estim	-5230
▁75	-5231
▁surr	-5232
▁dead	-5233
▁passing	-5234
[1	-5235
▁study	-5236
▁online	-5237
unique	-5238
▁fing	-5239
▁1010	-5240
▁Answer	-5241
▁000).	-5242
reme	-5243
▁Ash	-5244
▁quantity	-5245
rem	-5246
▁showing	-5247
▁passengers	-5248
▁`3	-5249
▁Set	-5250
▁arbitrarily	-5251
▁proved	-5252
▁chick	-5253
▁choices	-5254
ictory	-5255
orses	-5256
▁delivery	-5257
▁unknown	-5258
▁10^{5}$	-5259
▁abcd	-5260
▁usual	-5261
2\]	-5262
▁7]	-5263
▁guys	-5264
▁persons	-5265
▁stars	-5266
▁bread	-5267
jective	-5268
']	-5269
68	-5270
>>>>	-5271
▁asking	-5272
▁bags	-5273
None	-5274
▁increased	-5275
aped	-5276
▁corners	-5277
▁drawing	-5278
igned	-5279
▁\\\	-5280
rors	-5281
▁......	-5282
▁feature	-5283
Th	-5284
_{2,	-5285
20,	-5286
▁gal	-5287
ology	-5288
▁10^9,	-5289
▁bool	-5290
▁falls	-5291
▁2\	-5292
sm	-5293
▁200000	-5294
▁diamond	-5295
▁processing	-5296
▁mirror	-5297
iest	-5298
▁actual	-5299
▁relationship	-5300
▁fully	-5301
▁exer	-5302
Word	-5303
first	-5304
▁replacing	-5305
ca	-5306
BR	-5307
▁Or	-5308
▁[]	-5309
sion	-5310
▁в	-5311
▁Bit	-5312
▁ride	-5313
▁2⋅	-5314
▁1.5	-5315
ropri	-5316
edges	-5317
Co	-5318
________	-5319
▁1)-	-5320
▁((	-5321
▁die	-5322
▁cool	-5323
iet	-5324
ictions	-5325
▁spot	-5326
▁stream	-5327
▁chem	-5328
hello	-5329
▁rightmost	-5330
▁LCM	-5331
▁pret	-5332
";	-5333
inking	-5334
▁por	-5335
999	-5336
▁dragon	-5337
FF	-5338
▁Di	-5339
▁50000	-5340
▁pizza	-5341
▁9)	-5342
ground	-5343
▁shouldn	-5344
▁2*	-5345
▁{"	-5346
▁Specifically	-5347
▁cam	-5348
▁load	-5349
▁acceptable	-5350
astya	-5351
▁*****	-5352
▁spanning	-5353
▁overall	-5354
TM	-5355
ians	-5356
▁"-1"	-5357
▁warri	-5358
siders	-5359
▁"+	-5360
▁.#.	-5361
▁Tom	-5362
▁5·10	-5363
▁attrib	-5364
▁15.	-5365
▁bud	-5366
▁avoid	-5367
▁null	-5368
▁qi	-5369
▁cal	-5370
▁ratio	-5371
▁considers	-5372
▁tasked	-5373
▁packages	-5374
gry	-5375
▁Nik	-5376
▁applic	-5377
▁mathematical	-5378
▁stairs	-5379
▁facing	-5380
orn	-5381
▁challeng	-5382
▁{'	-5383
▁ancient	-5384
df	-5385
▁~	-5386
▁wood	-5387
▁Denis	-5388
cel	-5389
ino	-5390
▁sometimes	-5391
▁10^{9}	-5392
▁chron	-5393
▁$6$	-5394
▁Team	-5395
▁Operation	-5396
▁associated	-5397
abcd	-5398
ding	-5399
▁corridor	-5400
▁details	-5401
dist	-5402
▁sus	-5403
▁58	-5404
▁-7	-5405
▁climb	-5406
deg	-5407
[1],	-5408
mitted	-5409
▁stays	-5410
orrow	-5411
▁eating	-5412
▁Statement	-5413
cle	-5414
▁manager	-5415
ucl	-5416
▁bon	-5417
▁bou	-5418
▁bridges	-5419
▁ingredients	-5420
stit	-5421
▁Les	-5422
mar	-5423
▁Oleg	-5424
▁"1"	-5425
umes	-5426
▁д	-5427
lep	-5428
▁16,	-5429
▁dot	-5430
▁onto	-5431
▁hyp	-5432
▁marri	-5433
0-	-5434
6.	-5435
▁appropri	-5436
▁lesson	-5437
aint	-5438
▁queen	-5439
▁500)	-5440
▁blog	-5441
▁processed	-5442
▁merge	-5443
▁bottles	-5444
▁5],	-5445
▁slices	-5446
▁continues	-5447
▁plus	-5448
rict	-5449
но	-5450
used	-5451
▁automat	-5452
▁taxi	-5453
▁necklace	-5454
▁finishes	-5455
▁ath	-5456
sor	-5457
▁possib	-5458
▁occupy	-5459
▁transformation	-5460
oe	-5461
▁bow	-5462
▁geomet	-5463
▁grams	-5464
though	-5465
▁unf	-5466
▁equally	-5467
]:	-5468
ism	-5469
cdots	-5470
ны	-5471
▁produced	-5472
▁organizers	-5473
▁Ind	-5474
[0	-5475
rown	-5476
▁sea	-5477
▁nobody	-5478
▁patterns	-5479
▁attem	-5480
▁mouse	-5481
▁lying	-5482
▁relig	-5483
ester	-5484
▁51	-5485
▁connection	-5486
aria	-5487
1011	-5488
5}	-5489
ulate	-5490
000)	-5491
▁wat	-5492
▁vote	-5493
▁defeat	-5494
▁cutting	-5495
▁enters	-5496
---+	-5497
next	-5498
Tr	-5499
▁suppose	-5500
"],	-5501
▁market	-5502
icted	-5503
▁picked	-5504
▁distribut	-5505
auuo	-5506
▁Nauuo	-5507
▁Ob	-5508
▁coprime	-5509
▁30,	-5510
▁subjects	-5511
▁chance	-5512
▁verdict	-5513
▁contestants	-5514
▁Luck	-5515
▁holes	-5516
▁Aiz	-5517
▁worth	-5518
istic	-5519
▁mayor	-5520
$:	-5521
▁$3$.	-5522
ging	-5523
▁caught	-5524
lya	-5525
▁penalty	-5526
+1},	-5527
1001	-5528
▁shifts	-5529
▁TV	-5530
▁eaten	-5531
▁ba	-5532
enty	-5533
▁−	-5534
ump	-5535
▁cheap	-5536
}{2}	-5537
abs	-5538
▁fig	-5539
▁decl	-5540
▁mil	-5541
▁$9	-5542
▁closing	-5543
▁dy	-5544
▁linear	-5545
▁coff	-5546
▁companies	-5547
????	-5548
struction	-5549
▁swapping	-5550
▁matrices	-5551
▁limits	-5552
▁attr	-5553
_1)	-5554
▁200,	-5555
▁abbrevi	-5556
▁summer	-5557
▁[10,	-5558
▁tast	-5559
▁exams	-5560
ucle	-5561
▁frame	-5562
▁kata	-5563
▁terminate	-5564
hu	-5565
=1}^{	-5566
▁proven	-5567
▁strip	-5568
▁и	-5569
▁Lesha	-5570
▁\&	-5571
lepip	-5572
▁Their	-5573
▁easily	-5574
▁garland	-5575
▁250	-5576
▁beads	-5577
▁Go	-5578
gers	-5579
▁stores	-5580
▁Mart	-5581
▁recom	-5582
_#_#_#_#_#_#_#_#	-5583
▁000),	-5584
▁parallelepip	-5585
▁12345678	-5586
321	-5587
▁AN	-5588
good	-5589
hatt	-5590
uture	-5591
▁mountains	-5592
▁accom	-5593
▁100$	-5594
▁managed	-5595
▁assumed	-5596
▁population	-5597
(0)	-5598
Function	-5599
▁ago	-5600
▁converted	-5601
0\]	-5602
▁bears	-5603
▁{3,	-5604
▁fan	-5605
▁passage	-5606
▁lad	-5607
▁wizard	-5608
▁neighbouring	-5609
atory	-5610
48	-5611
hattan	-5612
blue	-5613
▁liter	-5614
iles	-5615
▁'#	-5616
▁2;	-5617
▁gain	-5618
ief	-5619
▁thread	-5620
▁improve	-5621
▁refer	-5622
+1+1	-5623
izing	-5624
ales	-5625
▁aaaaa	-5626
▁aim	-5627
▁"#	-5628
INT	-5629
▁grass	-5630
▁Will	-5631
▁individual	-5632
UU	-5633
▁CS	-5634
▁body	-5635
▁phrase	-5636
▁Take	-5637
▁parents	-5638
▁System	-5639
▁virus	-5640
▁#1	-5641
ley	-5642
query	-5643
▁ids	-5644
uro	-5645
▁ves	-5646
▁Def	-5647
▁research	-5648
cu	-5649
▁countries	-5650
▁Arr	-5651
9}	-5652
▁Array	-5653
fort	-5654
ctuation	-5655
▁hasn	-5656
▁site	-5657
sqrt	-5658
▁aster	-5659
▁restaurants	-5660
▁shot	-5661
▁bottle	-5662
limit	-5663
▁cursor	-5664
▁story	-5665
reshold	-5666
▁attacks	-5667
▁#.	-5668
ama	-5669
500	-5670
▁sem	-5671
▁preparing	-5672
plotlib	-5673
BBB	-5674
do	-5675
date	-5676
▁Step	-5677
net	-5678
▁Bessie	-5679
▁tim	-5680
▁earlier	-5681
▁connections	-5682
▁budget	-5683
▁restrictions	-5684
▁girlf	-5685
▁material	-5686
urrent	-5687
▁Remove	-5688
Node	-5689
`;	-5690
▁Length	-5691
vent	-5692
3),	-5693
cont	-5694
pare	-5695
▁Dev	-5696
▁parenthesis	-5697
▁crossroads	-5698
▁Roman	-5699
▁serve	-5700
▁tag	-5701
▁alt	-5702
▁successfully	-5703
ades	-5704
yram	-5705
▁human	-5706
icle	-5707
andas	-5708
▁$3$,	-5709
▁sil	-5710
phone	-5711
▁sheep	-5712
shirt	-5713
fficients	-5714
irts	-5715
XXXX	-5716
▁plate	-5717
▁hotel	-5718
▁Further	-5719
▁iss	-5720
▁ignore	-5721
▁Greg	-5722
overl	-5723
▁local	-5724
▁$[3,	-5725
▁rh	-5726
▁Farmer	-5727
mer	-5728
▁Tanya	-5729
▁expressions	-5730
▁percent	-5731
▁judge	-5732
▁produces	-5733
▁explained	-5734
-'	-5735
▁stored	-5736
▁appeared	-5737
▁boundary	-5738
▁arm	-5739
ising	-5740
▁differs	-5741
▁unusual	-5742
▁bases	-5743
▁service	-5744
▁89	-5745
▁scheme	-5746
ports	-5747
▁complic	-5748
▁salary	-5749
ID	-5750
quently	-5751
▁centimeters	-5752
▁${	-5753
▁portal	-5754
▁"(	-5755
▁checker	-5756
ро	-5757
cm	-5758
▁erased	-5759
▁xj	-5760
▁surv	-5761
▁Serge	-5762
issors	-5763
\}.	-5764
▁heroes	-5765
▁holding	-5766
▁999999999	-5767
▁worker	-5768
▁5000)	-5769
▁limited	-5770
reets	-5771
▁dinner	-5772
lling	-5773
▁chan	-5774
▁twe	-5775
▁regardless	-5776
▁Pre	-5777
▁10^8	-5778
Re	-5779
▁recogn	-5780
▁creating	-5781
▁kids	-5782
▁modify	-5783
▁calendar	-5784
▁Sam	-5785
▁months	-5786
▁\[3,	-5787
tree	-5788
▁planned	-5789
▁Codeforces	-5790
▁access	-5791
▁kit	-5792
▁eight	-5793
▁watching	-5794
▁iteration	-5795
▁AAA	-5796
▁\\{	-5797
▁Noora	-5798
33333333	-5799
▁experience	-5800
▁17,	-5801
random	-5802
▁"(()	-5803
ensive	-5804
gl	-5805
-1]	-5806
▁pyram	-5807
▁turtle	-5808
▁pressed	-5809
He	-5810
▁elim	-5811
▁nucle	-5812
▁sees	-5813
▁Check	-5814
▁Earth	-5815
▁0000	-5816
96	-5817
war	-5818
yclic	-5819
▁1$,	-5820
▁ren	-5821
eries	-5822
▁00000	-5823
▁interactive	-5824
^3	-5825
▁demon	-5826
yi	-5827
▁evening	-5828
▁')	-5829
▁defines	-5830
▁extreme	-5831
▁fighting	-5832
▁walks	-5833
▁horses	-5834
stdout	-5835
den	-5836
▁Bub	-5837
axy	-5838
').	-5839
5).	-5840
▁Due	-5841
▁via	-5842
▁partitions	-5843
▁sen	-5844
▁cm	-5845
▁Stud	-5846
2,1	-5847
▁gem	-5848
▁Xi	-5849
▁feel	-5850
▁residents	-5851
▁transl	-5852
▁objective	-5853
:0	-5854
uler	-5855
▁bouqu	-5856
125	-5857
▁railway	-5858
▁[1,2,3,	-5859
▁burn	-5860
▁Nastya	-5861
▁bb	-5862
▁keyboard	-5863
mpiad	-5864
kata	-5865
▁Red	-5866
▁prove	-5867
▁lazy	-5868
herlock	-5869
this	-5870
▁Artem	-5871
▁tro	-5872
▁punctuation	-5873
▁invite	-5874
▁swapped	-5875
▁rook	-5876
▁colour	-5877
Al	-5878
▁exhi	-5879
dif	-5880
▁hate	-5881
▁condu	-5882
▁electric	-5883
eps	-5884
▁aab	-5885
never	-5886
▁10^18	-5887
▁cros	-5888
▁97	-5889
boxed	-5890
▁hacks	-5891
cs	-5892
▁planks	-5893
numbered	-5894
▁viol	-5895
actor	-5896
▁processes	-5897
{}.	-5898
▁alloc	-5899
▁107	-5900
▁enjoy	-5901
▁tables	-5902
▁mid	-5903
ingu	-5904
▁meter	-5905
▁Interaction	-5906
▁"3	-5907
▁testing	-5908
▁prize	-5909
▁deletion	-5910
▁invited	-5911
Bit	-5912
werty	-5913
▁pointer	-5914
▁descending	-5915
▁pet	-5916
ailed	-5917
▁surface	-5918
▁IC	-5919
▁particles	-5920
usion	-5921
▁suits	-5922
▁contestant	-5923
▁Replace	-5924
▁vowel	-5925
loor	-5926
▁enumer	-5927
▁bright	-5928
▁upon	-5929
▁|2	-5930
▁Hong	-5931
▁filter	-5932
▁paid	-5933
▁"."	-5934
▁coefficients	-5935
3\]	-5936
▁|1	-5937
ager	-5938
▁cate	-5939
▁situ	-5940
▁homework	-5941
▁Allen	-5942
▁complex	-5943
Ch	-5944
▁2},	-5945
▁depend	-5946
▁1$.	-5947
())	-5948
▁Dan	-5949
▁minimized	-5950
▁placing	-5951
icro	-5952
▁addresses	-5953
▁Ashish	-5954
ji	-5955
▁pus	-5956
uming	-5957
▁passenger	-5958
▁lan	-5959
▁goods	-5960
▁disk	-5961
▁Hongcow	-5962
▁Harry	-5963
'),	-5964
tri	-5965
she	-5966
tellig	-5967
▁Mishka	-5968
▁Tok	-5969
▁Sign	-5970
▁ic	-5971
▁66	-5972
▁Orig	-5973
▁boss	-5974
▁drinks	-5975
VK	-5976
▁complicated	-5977
▁capture	-5978
▁DataFrame	-5979
▁zomb	-5980
/3	-5981
▁suggested	-5982
▁penc	-5983
▁63	-5984
orth	-5985
▁mut	-5986
urity	-5987
▁-100	-5988
▁proce	-5989
http	-5990
▁Fed	-5991
▁graphs	-5992
▁'?	-5993
type	-5994
▁angles	-5995
▁truck	-5996
▁Rob	-5997
▁unable	-5998
▁ghost	-5999
▁20000	-6000
▁ZS	-6001
5],	-6002
▁multiplied	-6003
orders	-6004
▁Remember	-6005
▁social	-6006
▁spots	-6007
▁manage	-6008
ombs	-6009
▁chat	-6010
)=	-6011
ene	-6012
▁reference	-6013
2,2	-6014
mathrm	-6015
▁balloons	-6016
▁kth	-6017
ordered	-6018
▁ASCII	-6019
▁invest	-6020
1234	-6021
▁consistent	-6022
adjacent	-6023
▁mathematic	-6024
▁workers	-6025
▁Constraint	-6026
connected	-6027
▁5).	-6028
▁daily	-6029
▁visiting	-6030
▁interaction	-6031
▁uniquely	-6032
itory	-6033
▁curious	-6034
▁Sherlock	-6035
width	-6036
▁trailing	-6037
lin	-6038
▁friendship	-6039
▁tunnel	-6040
▁Mana	-6041
arsh	-6042
unge	-6043
▁buses	-6044
mas	-6045
▁couple	-6046
=3,	-6047
how	-6048
▁approach	-6049
plain	-6050
▁Following	-6051
▁Manhattan	-6052
▁forming	-6053
▁encrypted	-6054
rier	-6055
▁arch	-6056
▁fruit	-6057
▁109`	-6058
▁triplets	-6059
▁"11	-6060
▁Maxim	-6061
▁($1\	-6062
▁boring	-6063
▁Start	-6064
▁spread	-6065
agic	-6066
▁chicken	-6067
▁shovels	-6068
▁88	-6069
Of	-6070
▁generates	-6071
▁fits	-6072
><	-6073
▁escape	-6074
],[1,	-6075
▁professor	-6076
▁supply	-6077
bur	-6078
OD	-6079
▁tanger	-6080
▁ham	-6081
▁bills	-6082
▁conson	-6083
▁Being	-6084
xyz	-6085
▁Make	-6086
▁0]	-6087
▁neighbor	-6088
▁coefficient	-6089
▁repair	-6090
▁coach	-6091
▁sweet	-6092
arin	-6093
rist	-6094
▁NOTE	-6095
▁polygons	-6096
`)	-6097
orded	-6098
▁Type	-6099
semble	-6100
▁3;	-6101
seud	-6102
▁stole	-6103
▁methods	-6104
▁10).	-6105
########	-6106
RRRR	-6107
ugg	-6108
▁dictionaries	-6109
▁$-1	-6110
esian	-6111
iling	-6112
100,	-6113
▁13.	-6114
oubles	-6115
▁operators	-6116
also	-6117
hand	-6118
(3	-6119
▁precisely	-6120
▁wish	-6121
▁>=	-6122
▁Compute	-6123
▁abacaba	-6124
▁symmetric	-6125
▁crossroad	-6126
▁Cell	-6127
▁future	-6128
Wrong	-6129
▁65	-6130
▁perimeter	-6131
▁recover	-6132
AR	-6133
95	-6134
adec	-6135
▁champ	-6136
avel	-6137
pression	-6138
▁2000)	-6139
▁Generate	-6140
▁recorded	-6141
▁ordering	-6142
▁(6,	-6143
adecimal	-6144
▁moder	-6145
bbles	-6146
▁active	-6147
▁formatted	-6148
▁Mod	-6149
▁Manao	-6150
▁host	-6151
▁executed	-6152
]$;	-6153
▁appropriate	-6154
EE	-6155
▁switches	-6156
(4	-6157
_{1	-6158
▁identify	-6159
од	-6160
ium	-6161
▁append	-6162
▁contrib	-6163
▁district	-6164
tu	-6165
▁worst	-6166
ZY	-6167
▁practice	-6168
▁mushrooms	-6169
-5	-6170
▁Kefa	-6171
▁streets	-6172
▁hash	-6173
▁learning	-6174
▁signific	-6175
4],	-6176
ises	-6177
▁16.	-6178
just	-6179
▁AC	-6180
▁advance	-6181
inth	-6182
▁swim	-6183
▁alphabetical	-6184
▁2`	-6185
▁leads	-6186
▁submatrix	-6187
ban	-6188
",".",".	-6189
common	-6190
aus	-6191
)/	-6192
▁farm	-6193
▁wires	-6194
▁Instruction	-6195
▁dates	-6196
▁Ham	-6197
lfloor	-6198
rfloor	-6199
▁scoring	-6200
▁float	-6201
▁\*	-6202
▁figures	-6203
▁arrived	-6204
▁Vanya	-6205
▁78	-6206
▁chair	-6207
▁compressed	-6208
▁1\	-6209
eric	-6210
0,0,0,0,	-6211
▁periods	-6212
▁Select	-6213
▁Binary	-6214
▁specifically	-6215
▁myster	-6216
▁Notes	-6217
▁Good	-6218
66666666	-6219
▁■	-6220
)$,	-6221
acc	-6222
▁ignored	-6223
ae	-6224
▁fflush	-6225
▁ability	-6226
oslav	-6227
verse	-6228
pmod	-6229
ips	-6230
▁respect	-6231
▁cycl	-6232
▁Chane	-6233
▁features	-6234
▁Query	-6235
▁600	-6236
▁Gen	-6237
uthor	-6238
_1$,	-6239
▁Kevin	-6240
+0	-6241
'`.	-6242
▁poor	-6243
String	-6244
▁security	-6245
();	-6246
kl	-6247
▁[1;	-6248
hop	-6249
cost	-6250
▁Bubble	-6251
duc	-6252
operation	-6253
▁hot	-6254
omen	-6255
3},	-6256
und	-6257
▁surrounded	-6258
▁characterized	-6259
▁chronological	-6260
▁Over	-6261
▁install	-6262
▁discount	-6263
▁documentation	-6264
▁Ilya	-6265
▁announ	-6266
▁replacement	-6267
Le	-6268
▁income	-6269
pire	-6270
onday	-6271
▁bran	-6272
▁Eucl	-6273
▁copies	-6274
▁courses	-6275
▁[1,2,	-6276
aven	-6277
ifted	-6278
▁Possible	-6279
IS	-6280
▁restriction	-6281
athe	-6282
▁repeats	-6283
ura	-6284
▁Maria	-6285
▁subtr	-6286
▁bc	-6287
▁mood	-6288
▁converts	-6289
ра	-6290
note	-6291
qquad	-6292
▁6),	-6293
asket	-6294
▁reser	-6295
sess	-6296
▁panels	-6297
▁rope	-6298
▁layer	-6299
▁girlfriend	-6300
▁10^5),	-6301
94	-6302
oni	-6303
space	-6304
▁codes	-6305
▁ranges	-6306
▁Trans	-6307
▁Up	-6308
▁sky	-6309
......	-6310
ault	-6311
urations	-6312
oup	-6313
-3,	-6314
▁studying	-6315
_1}	-6316
▁brown	-6317
long	-6318
▁calculation	-6319
▁5}	-6320
▁CON	-6321
▁splitting	-6322
▁public	-6323
▁refle	-6324
11,	-6325
▁saf	-6326
inated	-6327
▁maximized	-6328
binary	-6329
▁pretty	-6330
Val	-6331
▁Fortunately	-6332
ED	-6333
kar	-6334
▁labor	-6335
▁pipes	-6336
72	-6337
▁ori	-6338
strings	-6339
▁exceeds	-6340
▁Right	-6341
▁evil	-6342
plicity	-6343
▁Aizu	-6344
\,000	-6345
▁hal	-6346
6]	-6347
^{2}	-6348
▁collected	-6349
▁10^{12	-6350
▁ST	-6351
▁cipher	-6352
▁rolls	-6353
▁socks	-6354
▁support	-6355
▁passages	-6356
owing	-6357
▁irre	-6358
▁pseud	-6359
▁Furthermore	-6360
rr	-6361
▁heads	-6362
▁potat	-6363
▁Russian	-6364
▁1000),	-6365
▁interpre	-6366
▁3.0	-6367
BBBB	-6368
▁**_	-6369
FS	-6370
▁seems	-6371
▁calculating	-6372
Un	-6373
▁analy	-6374
▁14,	-6375
▁univers	-6376
▁81	-6377
▁occupies	-6378
▁$1$:	-6379
XOR	-6380
olean	-6381
defg	-6382
▁maj	-6383
▁purpose	-6384
▁teleport	-6385
▁factory	-6386
▁Original	-6387
bitwise	-6388
overlapping	-6389
=6	-6390
▁polyline	-6391
▁(1,1)	-6392
▁Mi	-6393
▁rearranged	-6394
▁dark	-6395
▁communication	-6396
De	-6397
_2$,	-6398
120	-6399
▁Pan	-6400
leetcode	-6401
▁4}	-6402
▁status	-6403
▁2|	-6404
▁bamboo	-6405
▁leap	-6406
▁'*'	-6407
6,7,	-6408
▁Swap	-6409
▁veh	-6410
▁62	-6411
▁tax	-6412
bmod	-6413
▁mathematics	-6414
ultiple	-6415
nam	-6416
▁"-	-6417
▁compare	-6418
▁Don	-6419
acker	-6420
▁⌊	-6421
▁Initial	-6422
▁packs	-6423
▁ni	-6424
▁***	-6425
argest	-6426
▁Old	-6427
inese	-6428
10^6	-6429
iro	-6430
▁"""	-6431
▁sheets	-6432
▁solves	-6433
▁depends	-6434
(4)	-6435
▁102	-6436
▁recursive	-6437
arly	-6438
▁marble	-6439
▁module	-6440
rectangle	-6441
10)	-6442
▁potential	-6443
itch	-6444
||	-6445
iency	-6446
▁intellig	-6447
▁multiples	-6448
▁tried	-6449
▁10^{18}	-6450
can	-6451
▁content	-6452
▁lamp	-6453
▁positioned	-6454
isor	-6455
▁3$	-6456
▁-2,	-6457
▁pyramid	-6458
▁ICPC	-6459
10}	-6460
size	-6461
▁ple	-6462
othes	-6463
▁XX	-6464
▁Part	-6465
▁editor	-6466
▁supposed	-6467
lines	-6468
▁dance	-6469
▁interactor	-6470
down	-6471
dge	-6472
▁Par	-6473
?"	-6474
last	-6475
ival	-6476
▁ships	-6477
idean	-6478
ctures	-6479
▁terr	-6480
▁requirement	-6481
ricts	-6482
▁container	-6483
▁criter	-6484
▁lst	-6485
▁[[1,	-6486
ware	-6487
▁application	-6488
▁Char	-6489
12345678	-6490
▁deb	-6491
▁threshold	-6492
▁usually	-6493
▁currency	-6494
ache	-6495
▁easier	-6496
▁к	-6497
▁Tim	-6498
Bitwise	-6499
[2],	-6500
rey	-6501
▁$1$-	-6502
▁stages	-6503
▁puzzles	-6504
▁998	-6505
▁weap	-6506
ometers	-6507
▁instantly	-6508
▁Even	-6509
▁0:	-6510
▁CSV	-6511
avas	-6512
▁105.	-6513
pat	-6514
luck	-6515
▁notice	-6516
▁cheapest	-6517
intersecting	-6518
ook	-6519
▁Sort	-6520
venir	-6521
▁souvenir	-6522
▁concent	-6523
cessive	-6524
▁Using	-6525
problems	-6526
▁(<	-6527
▁001	-6528
▁Signature	-6529
▁dunge	-6530
andarin	-6531
▁basket	-6532
iliar	-6533
▁\[0,	-6534
▁reduced	-6535
▁Third	-6536
”.	-6537
▁2·105)	-6538
▁shares	-6539
ta	-6540
▁Instead	-6541
▁ink	-6542
heres	-6543
▁Barney	-6544
▁Having	-6545
86	-6546
▁yj	-6547
▁subway	-6548
▁acyclic	-6549
▁playlist	-6550
BA	-6551
▁"4	-6552
▁surpr	-6553
▁14.	-6554
▁triplet	-6555
▁Arpa	-6556
▁jobs	-6557
▁mis	-6558
▁saus	-6559
▁hur	-6560
▁fest	-6561
▁bonus	-6562
▁shapes	-6563
▁districts	-6564
INTS	-6565
▁shortcut	-6566
▁algorithms	-6567
▁Player	-6568
Pro	-6569
load	-6570
iders	-6571
▁sends	-6572
▁encoding	-6573
********	-6574
minimum	-6575
\_	-6576
▁enemies	-6577
▁realized	-6578
▁\,	-6579
unc	-6580
uns	-6581
▁modern	-6582
STRA	-6583
▁stolen	-6584
▁submiss	-6585
oooo	-6586
▁news	-6587
▁5-	-6588
▁tre	-6589
▁universe	-6590
eek	-6591
pons	-6592
light	-6593
▁alarm	-6594
▁limitations	-6595
▁gray	-6596
▁history	-6597
▁victory	-6598
▁behind	-6599
▁bm	-6600
plays	-6601
▁chemical	-6602
inted	-6603
▁identifier	-6604
hog	-6605
tegers	-6606
ita	-6607
igible	-6608
changed	-6609
▁guy	-6610
▁weird	-6611
part	-6612
▁codeforces	-6613
AND	-6614
▁sports	-6615
---+---+	-6616
|$	-6617
▁strengths	-6618
▁100,000	-6619
▁evenly	-6620
▁10^9$).	-6621
▁provides	-6622
▁$10$	-6623
▁$10^{	-6624
▁`10	-6625
▁sentences	-6626
▁Si	-6627
▁imag	-6628
oen	-6629
▁mother	-6630
car	-6631
elements	-6632
▁fol	-6633
nels	-6634
▁sess	-6635
▁thinking	-6636
IM	-6637
▁applications	-6638
onya	-6639
▁Could	-6640
▁receiving	-6641
fix	-6642
▁199	-6643
▁kept	-6644
▁unordered	-6645
Impossible	-6646
▁execute	-6647
▁103	-6648
▁fail	-6649
▁repeatedly	-6650
▁53	-6651
adow	-6652
▁CP	-6653
find	-6654
▁Coder	-6655
▁ord	-6656
ordinates	-6657
▁simplicity	-6658
True	-6659
▁crime	-6660
▁(\	-6661
▁rides	-6662
▁af	-6663
▁ants	-6664
ope	-6665
▁hair	-6666
▁checkpoint	-6667
▁subgraph	-6668
oenix	-6669
92	-6670
pop	-6671
▁scales	-6672
isk	-6673
abase	-6674
52	-6675
.......	-6676
▁{0,	-6677
▁documents	-6678
ste	-6679
▁1,000,000,	-6680
Se	-6681
▁whites	-6682
▁[1]	-6683
▁join	-6684
▁roses	-6685
▁People	-6686
▁planted	-6687
product	-6688
▁Obviously	-6689
answer	-6690
[1,	-6691
ceil	-6692
struct	-6693
▁pred	-6694
▁served	-6695
▁juice	-6696
reg	-6697
ometer	-6698
▁32-	-6699
▁Ev	-6700
chen	-6701
▁CONSTRA	-6702
▁desc	-6703
▁earth	-6704
etween	-6705
▁contents	-6706
▁parallelepiped	-6707
▁Xenia	-6708
▁parties	-6709
▁interest	-6710
outh	-6711
orter	-6712
abacaba	-6713
▁inequality	-6714
▁kitchen	-6715
▁(6	-6716
mn	-6717
wr	-6718
▁bed	-6719
XXX	-6720
▁shuffle	-6721
▁forgot	-6722
▁Ag	-6723
▁hat	-6724
▁vot	-6725
▁bombs	-6726
▁Vladik	-6727
▁Sun	-6728
▁router	-6729
bu	-6730
uka	-6731
7]	-6732
▁master	-6733
▁configurations	-6734
(|	-6735
▁|3	-6736
level	-6737
▁Pasha	-6738
▁powerful	-6739
▁gathe	-6740
▁guard	-6741
acob	-6742
licious	-6743
▁72	-6744
aroslav	-6745
▁selling	-6746
olya	-6747
rots	-6748
▁keeps	-6749
cba	-6750
▁anyone	-6751
▁`-1`.	-6752
▁Gu	-6753
▁$2$:	-6754
▁calculations	-6755
they	-6756
▁Ram	-6757
▁Devu	-6758
lly	-6759
▁Five	-6760
ет	-6761
▁outcome	-6762
▁84	-6763
▁amounts	-6764
▁fulfill	-6765
raid	-6766
▁shots	-6767
mutation	-6768
▁increment	-6769
▁1012	-6770
ued	-6771
▁artif	-6772
ached	-6773
7777	-6774
10^5$.	-6775
▁appearan	-6776
vals	-6777
▁3].	-6778
sident	-6779
▁wise	-6780
▁expensive	-6781
▁airport	-6782
5\]	-6783
▁\[4,	-6784
▁Su	-6785
▁claim	-6786
▁sufficient	-6787
cho	-6788
▁Petr	-6789
▁Kingdom	-6790
sen	-6791
▁IDs	-6792
oke	-6793
▁digital	-6794
▁joy	-6795
▁Jacob	-6796
▁numerical	-6797
▁season	-6798
▁crosses	-6799
▁96	-6800
ycle	-6801
\}$	-6802
▁designed	-6803
quotes	-6804
Number	-6805
▁Ensure	-6806
▁measured	-6807
▁tracks	-6808
consecutive	-6809
mp	-6810
using	-6811
▁aud	-6812
rus	-6813
▁$4$.	-6814
▁Namely	-6815
▁Our	-6816
▁gather	-6817
▁title	-6818
▁spending	-6819
▁lat	-6820
▁falling	-6821
▁affect	-6822
▁fox	-6823
▁expect	-6824
▁email	-6825
dir	-6826
▁Mar	-6827
▁Yi	-6828
▁infl	-6829
▁ce	-6830
▁Where	-6831
ako	-6832
XY	-6833
adium	-6834
▁CONSTRAINTS	-6835
▁kilometers	-6836
zag	-6837
12,	-6838
▁setting	-6839
▁`1`.	-6840
oma	-6841
ABC	-6842
▁(10^9	-6843
▁football	-6844
▁crossword	-6845
▁1100	-6846
15,	-6847
▁borders	-6848
▁1001	-6849
▁remind	-6850
shaped	-6851
=1}^	-6852
lst	-6853
▁$100	-6854
GC	-6855
abbits	-6856
cir	-6857
▁Aly	-6858
▁shops	-6859
▁demonstr	-6860
▁fold	-6861
__(	-6862
],[2,	-6863
▁declared	-6864
aved	-6865
▁mana	-6866
"),	-6867
▁BST	-6868
▁camera	-6869
iters	-6870
▁Yaroslav	-6871
▁hel	-6872
balanced	-6873
▁scenarios	-6874
».	-6875
▁Kn	-6876
▁endpoint	-6877
sim	-6878
▁understanding	-6879
zes	-6880
trans	-6881
ни	-6882
97	-6883
▁rounding	-6884
=0,	-6885
▁cn	-6886
▁Cor	-6887
ali	-6888
▁weak	-6889
▁10^5$).	-6890
▁244	-6891
▁Kat	-6892
IV	-6893
▁papers	-6894
incess	-6895
▁10^{-6	-6896
▁offers	-6897
▁Br	-6898
▁stadium	-6899
▁dro	-6900
assi	-6901
_1,...,	-6902
)}\	-6903
irect	-6904
▁locked	-6905
###	-6906
▁()	-6907
eks	-6908
▁religion	-6909
▁gri	-6910
▁$(3,	-6911
limited	-6912
▁finishing	-6913
▁representations	-6914
▁frid	-6915
▁panel	-6916
▁Blue	-6917
joint	-6918
▁4].	-6919
sk	-6920
▁contrad	-6921
yle	-6922
▁Mark	-6923
▁57	-6924
actly	-6925
▁spheres	-6926
ection	-6927
fficiency	-6928
▁'+	-6929
▁"()	-6930
▁database	-6931
▁internal	-6932
▁traveling	-6933
▁8)	-6934
▁stripe	-6935
▁chefs	-6936
▁decision	-6937
▁Monk	-6938
▁200)	-6939
▁Phoenix	-6940
▁fem	-6941
▁`-10	-6942
▁extremely	-6943
▁Arya	-6944
▁legend	-6945
▁distributed	-6946
▁pool	-6947
▁trips	-6948
da	-6949
▁geometric	-6950
AD	-6951
shirts	-6952
▁Je	-6953
10.	-6954
▁104)	-6955
▁frag	-6956
▁Sergey	-6957
ram	-6958
▁MEX	-6959
▁tom	-6960
▁Pi	-6961
vable	-6962
▁departure	-6963
0}	-6964
▁dungeon	-6965
▁plates	-6966
▁El	-6967
*3	-6968
▁entry	-6969
increasing	-6970
▁Christ	-6971
▁coffee	-6972
yrinth	-6973
▁labyrinth	-6974
▁displays	-6975
▁cy	-6976
▁arrangements	-6977
▁alone	-6978
▁decode	-6979
artesian	-6980
ET	-6981
1,4,	-6982
▁basic	-6983
▁laptop	-6984
▁travels	-6985
▁evaluate	-6986
For	-6987
▁AtCo	-6988
defined	-6989
▁stable	-6990
equal	-6991
▁delicious	-6992
igzag	-6993
aged	-6994
▁notebook	-6995
▁Mo	-6996
▁paying	-6997
▁developing	-6998
mathbf	-6999
▁concatenating	-7000
{1}{	-7001
▁assemble	-7002
▁eventually	-7003
▁512	-7004
▁#2	-7005
▁Game	-7006
▁\[5,	-7007
▁throws	-7008
▁toss	-7009
ho	-7010
▁throughout	-7011
▁safety	-7012
▁unchanged	-7013
▁suns	-7014
BG	-7015
▁discus	-7016
▁DZY	-7017
itely	-7018
ducible	-7019
moud	-7020
▁galaxy	-7021
▁92	-7022
▁evolution	-7023
▁9).	-7024
▁citizen	-7025
▁alive	-7026
▁boolean	-7027
ifying	-7028
format	-7029
arlie	-7030
quares	-7031
▁stopped	-7032
▁stacks	-7033
▁).	-7034
▁Mah	-7035
▁Win	-7036
▁Points	-7037
▁ranks	-7038
▁entries	-7039
▁relation	-7040
▁69	-7041
▁priority	-7042
xrightarrow	-7043
▁excluding	-7044
▁concatenated	-7045
▁(1-	-7046
▁upset	-7047
▁colours	-7048
▁Nat	-7049
▁Prof	-7050
▁computes	-7051
▁tea	-7052
▁sources	-7053
▁floating	-7054
matplotlib	-7055
▁Princess	-7056
▁packets	-7057
1,2,3,4,	-7058
=\	-7059
▁believes	-7060
▁controll	-7061
3],	-7062
▁phys	-7063
▁vacation	-7064
▁twenty	-7065
eb	-7066
augh	-7067
To	-7068
на	-7069
plit	-7070
(5	-7071
▁Reference	-7072
Array	-7073
▁bulb	-7074
5$	-7075
bbbb	-7076
▁separately	-7077
▁stdout	-7078
agons	-7079
▁implementation	-7080
irements	-7081
You	-7082
▁execution	-7083
least	-7084
▁attacked	-7085
▁boundaries	-7086
▁$10^9	-7087
▁der	-7088
▁careful	-7089
▁programmers	-7090
▁abab	-7091
748	-7092
hh	-7093
nets	-7094
First	-7095
▁Ak	-7096
▁0$	-7097
▁cra	-7098
▁hello	-7099
unk	-7100
▁tail	-7101
▁attention	-7102
++;	-7103
▁dangerous	-7104
▁grad	-7105
aaab	-7106
▁Impossible	-7107
▁Bor	-7108
olis	-7109
▁pays	-7110
▁Male	-7111
▁fee	-7112
▁unlock	-7113
▁sausage	-7114
▁Res	-7115
ffer	-7116
▁500,	-7117
_**	-7118
ani	-7119
▁\).	-7120
▁inner	-7121
▁Pokemon	-7122
su	-7123
pha	-7124
▁Cartesian	-7125
7654	-7126
▁sells	-7127
▁installed	-7128
txt	-7129
▁batter	-7130
▁rocks	-7131
▁waste	-7132
iliy	-7133
▁iterations	-7134
▁definitely	-7135
▁sits	-7136
(5)	-7137
ashes	-7138
lists	-7139
^{-1}	-7140
▁errors	-7141
3,5,	-7142
▁1|	-7143
▁marriage	-7144
▁dir	-7145
▁brought	-7146
▁uniformly	-7147
▁contact	-7148
▁$7$	-7149
after	-7150
ст	-7151
▁brick	-7152
icts	-7153
▁Fox	-7154
ables	-7155
▁plants	-7156
mented	-7157
▁stuck	-7158
▁0.125	-7159
▁magnets	-7160
Alice	-7161
▁differences	-7162
▁irreducible	-7163
▁2$,	-7164
▁≡	-7165
▁registered	-7166
▁0.25	-7167
▁10^7	-7168
▁sad	-7169
▁000.	-7170
▁cash	-7171
▁women	-7172
2|	-7173
▁Sonya	-7174
▁inserting	-7175
olf	-7176
▁crew	-7177
alls	-7178
▁anagrams	-7179
▁Sometimes	-7180
▁Black	-7181
▁chairs	-7182
▁jewe	-7183
since	-7184
▁cables	-7185
▁demol	-7186
▁preced	-7187
▁Japanese	-7188
*2	-7189
▁steal	-7190
▁yield	-7191
▁hates	-7192
▁Apple	-7193
▁tur	-7194
▁shield	-7195
umul	-7196
▁Another	-7197
▁Chinese	-7198
▁owner	-7199
yo	-7200
▁scored	-7201
▁Inc	-7202
▁3·105)	-7203
▁Monday	-7204
▁lasts	-7205
eper	-7206
▁variant	-7207
▁rub	-7208
Es	-7209
▁68	-7210
ml	-7211
appy	-7212
▁previously	-7213
veloc	-7214
▁shorter	-7215
}{\	-7216
▁76	-7217
▁Square	-7218
▁fond	-7219
2$	-7220
▁tap	-7221
tic	-7222
▁music	-7223
▁draws	-7224
▁talk	-7225
▁assuming	-7226
000.	-7227
▁Chris	-7228
distance	-7229
▁tal	-7230
oki	-7231
”,	-7232
▁NA	-7233
▁maps	-7234
▁Separ	-7235
Che	-7236
BWBW	-7237
0),	-7238
vec	-7239
▁participating	-7240
averse	-7241
▁heart	-7242
▁rele	-7243
▁mysterious	-7244
▁fields	-7245
▁accur	-7246
dis	-7247
▁6).	-7248
▁Dis	-7249
▁2]$	-7250
istry	-7251
▁Vasiliy	-7252
▁diamonds	-7253
998244353	-7254
xor	-7255
▁packet	-7256
▁closer	-7257
▁lined	-7258
▁preser	-7259
▁hay	-7260
▁tool	-7261
▁3|	-7262
▁earns	-7263
▁pink	-7264
_2,\	-7265
▁decor	-7266
sorted	-7267
▁(7,	-7268
▁angry	-7269
▁Requ	-7270
ledge	-7271
▁dorm	-7272
▁staircase	-7273
edy	-7274
▁useful	-7275
▁.......	-7276
▁bish	-7277
▁concer	-7278
▁minimizes	-7279
+,	-7280
▁Claus	-7281
▁rearranging	-7282
▁10^5$,	-7283
▁alternate	-7284
yscr	-7285
▁visible	-7286
▁IT	-7287
1[	-7288
▁$1,	-7289
▁85	-7290
aff	-7291
▁integral	-7292
)-	-7293
▁veloc	-7294
▁lunch	-7295
▁10),	-7296
assif	-7297
]`,	-7298
csv	-7299
kk	-7300
▁gi	-7301
73	-7302
▁My	-7303
▁pebbles	-7304
▁spect	-7305
▁10^{6}	-7306
▁tn	-7307
▁gym	-7308
▁maximizes	-7309
▁tradition	-7310
ola	-7311
▁353	-7312
▁visual	-7313
▁sequent	-7314
▁los	-7315
▁logical	-7316
xxxx	-7317
0\],\[	-7318
_6	-7319
▁replaces	-7320
▁"/	-7321
-9	-7322
ami	-7323
▁skyscr	-7324
▁Malek	-7325
▁dogs	-7326
^{\	-7327
▁sorts	-7328
4\]	-7329
anumer	-7330
▁potions	-7331
▁Wrong	-7332
repe	-7333
▁son	-7334
AAAA	-7335
▁glasses	-7336
cing	-7337
▁answered	-7338
bble	-7339
▁Kost	-7340
▁lots	-7341
▁cause	-7342
▁rooks	-7343
▁-1000	-7344
BS	-7345
ел	-7346
▁conversion	-7347
walk	-7348
riends	-7349
hij	-7350
▁pir	-7351
▁std	-7352
▁Roy	-7353
▁1111	-7354
)}	-7355
▁exercise	-7356
▁$20	-7357
ara	-7358
▁Kostya	-7359
▁Cat	-7360
▁lessons	-7361
▁"<	-7362
▁ski	-7363
▁triangular	-7364
▁{1}	-7365
▁nucleot	-7366
▁unlimited	-7367
▁kilogram	-7368
▁disjoint	-7369
ille	-7370
▁User	-7371
3:	-7372
▁1);	-7373
▁genre	-7374
▁competitive	-7375
ZZ	-7376
:-	-7377
▁earned	-7378
▁police	-7379
avi	-7380
▁Current	-7381
▁Alyona	-7382
▁$2$-	-7383
▁afraid	-7384
▁shopping	-7385
▁formal	-7386
-0	-7387
▁desk	-7388
alph	-7389
▁colorful	-7390
▁updates	-7391
▁successive	-7392
▁potion	-7393
▁progressions	-7394
▁tons	-7395
rie	-7396
aaaaaaaa	-7397
▁earliest	-7398
▁comment	-7399
▁deep	-7400
▁jth	-7401
yond	-7402
▁criteria	-7403
▁prompt	-7404
▁Coke	-7405
▁recognized	-7406
▁inform	-7407
----------------	-7408
codeforces	-7409
uren	-7410
▁coding	-7411
oto	-7412
^1	-7413
bits	-7414
▁mathematician	-7415
(4,	-7416
▁Adil	-7417
▁union	-7418
ivity	-7419
▁tanks	-7420
▁bouquet	-7421
▁exponent	-7422
enny	-7423
▁bin	-7424
▁pour	-7425
▁arrows	-7426
▁concentration	-7427
element	-7428
▁Mahmoud	-7429
▁URL	-7430
hline	-7431
▁21,	-7432
▁pocket	-7433
]$,	-7434
▁appearance	-7435
▁Doctor	-7436
▁growing	-7437
.....	-7438
▁Pick	-7439
anumeric	-7440
▁substit	-7441
▁sens	-7442
except	-7443
▁comparison	-7444
2[	-7445
▁brain	-7446
second	-7447
▁0.1	-7448
▁newline	-7449
▁subs	-7450
▁30000	-7451
EC	-7452
_2}	-7453
▁May	-7454
▁aaaa	-7455
lls	-7456
▁pupil	-7457
▁61	-7458
▁decom	-7459
▁topic	-7460
▁creatures	-7461
▁mot	-7462
▁covers	-7463
▁Cap	-7464
pecially	-7465
▁0],	-7466
=4,	-7467
▁mask	-7468
▁rabbit	-7469
▁Car	-7470
▁Intern	-7471
8)	-7472
▁fewer	-7473
ол	-7474
▁composite	-7475
▁$4$,	-7476
▁finger	-7477
▁86	-7478
lucky	-7479
ioned	-7480
>)	-7481
▁ч	-7482
Py	-7483
TML	-7484
▁programs	-7485
ril	-7486
▁invent	-7487
▁department	-7488
gory	-7489
▁recon	-7490
atisf	-7491
▁oranges	-7492
▁killed	-7493
▁dream	-7494
▁exceeded	-7495
▁Chanek	-7496
·2	-7497
oz	-7498
ague	-7499
west	-7500
▁manip	-7501
▁clues	-7502
(()))	-7503
▁.##	-7504
▁beyond	-7505
▁gate	-7506
▁extract	-7507
▁characteristics	-7508
▁Olympiad	-7509
▁[4	-7510
`).	-7511
▁possess	-7512
▁.#	-7513
::	-7514
▁wishes	-7515
▁exclusive	-7516
▁investig	-7517
▁abcde	-7518
▁В	-7519
▁km	-7520
draw	-7521
▁eggs	-7522
▁Big	-7523
▁noise	-7524
-2)	-7525
▁archer	-7526
10"	-7527
▁Anya	-7528
▁Elements	-7529
gon	-7530
namese	-7531
▁seed	-7532
▁anywhere	-7533
▁17.	-7534
▁neighbours	-7535
Min	-7536
▁law	-7537
▁spir	-7538
▁efficiency	-7539
▁18,	-7540
▁0011	-7541
▁disappear	-7542
▁77	-7543
▁rings	-7544
▁10^6).	-7545
▁Overall	-7546
▁pillar	-7547
▁battery	-7548
▁ef	-7549
▁sale	-7550
iation	-7551
▁father	-7552
qq	-7553
▁coder	-7554
▁tomorrow	-7555
▁"00	-7556
raries	-7557
▁ended	-7558
coordinates	-7559
▁inserted	-7560
aters	-7561
▁convenience	-7562
ateral	-7563
ker	-7564
▁belonging	-7565
fs	-7566
because	-7567
▁contribution	-7568
11111111	-7569
▁soft	-7570
year	-7571
▁classroom	-7572
▁ingredient	-7573
▁officer	-7574
atively	-7575
ckets	-7576
IR	-7577
False	-7578
▁1]$	-7579
▁ben	-7580
▁ess	-7581
▁effect	-7582
▁corridors	-7583
▁1+2	-7584
▁analyze	-7585
▁\),	-7586
▁happened	-7587
2,2,	-7588
ponents	-7589
▁dropped	-7590
pyplot	-7591
-1}$	-7592
▁Value	-7593
▁cave	-7594
▁blood	-7595
▁rotations	-7596
▁'('	-7597
▁Ox	-7598
▁colony	-7599
)"	-7600
▁familiar	-7601
▁hy	-7602
▁plots	-7603
▁click	-7604
▁21.	-7605
▁arcs	-7606
▁bowl	-7607
▁extens	-7608
▁holid	-7609
orge	-7610
!)	-7611
▁putting	-7612
▁crack	-7613
▁prefixes	-7614
▁remembered	-7615
▁significant	-7616
PL	-7617
▁Vert	-7618
▁laboratory	-7619
▁xyz	-7620
▁distingu	-7621
▁targe	-7622
▁labelled	-7623
▁Define	-7624
▁equations	-7625
ipe	-7626
▁business	-7627
▁Vital	-7628
▁routers	-7629
▁xp	-7630
▁Simply	-7631
▁typed	-7632
▁ali	-7633
*1	-7634
ictor	-7635
▁delimit	-7636
▁''	-7637
],["	-7638
▁**0-	-7639
▁Nick	-7640
▁organize	-7641
▁roots	-7642
▁adap	-7643
aturday	-7644
▁attached	-7645
▁introduce	-7646
▁ABB	-7647
▁ladder	-7648
▁selecting	-7649
▁web	-7650
▁Andrey	-7651
▁criminals	-7652
▁immediate	-7653
▁Jon	-7654
▁superior	-7655
aren	-7656
ooo	-7657
ukaze	-7658
▁truth	-7659
itsukaze	-7660
▁episodes	-7661
dleness	-7662
}}$	-7663
▁79	-7664
ер	-7665
▁faster	-7666
ные	-7667
ndarray	-7668
alt	-7669
works	-7670
▁fulfilled	-7671
▁attempt	-7672
Sh	-7673
▁0.6	-7674
▁$$\	-7675
)).	-7676
−1	-7677
▁Pat	-7678
1,5,	-7679
·(	-7680
▁Program	-7681
▁qual	-7682
cakes	-7683
▁denominations	-7684
▁91	-7685
▁perfectly	-7686
view	-7687
▁ordinary	-7688
ildong	-7689
▁hints	-7690
aturally	-7691
▁1024	-7692
▁Hi	-7693
▁Gildong	-7694
▁cryst	-7695
GH	-7696
▁0.2	-7697
icles	-7698
▁yp	-7699
▁'#'	-7700
ryosh	-7701
reed	-7702
uv	-7703
▁winter	-7704
▁Charlie	-7705
▁2000).	-7706
▁computed	-7707
▁25,	-7708
▁Fig	-7709
▁1)$	-7710
▁trap	-7711
▁Separate	-7712
▁worm	-7713
▁assist	-7714
▁AA	-7715
▁lands	-7716
_{3}	-7717
▁resources	-7718
42	-7719
▁systems	-7720
▁nonempty	-7721
▁Explain	-7722
▁abbreviation	-7723
bon	-7724
lude	-7725
▁gram	-7726
ori	-7727
▁layout	-7728
▁situated	-7729
print	-7730
▁$10^5$.	-7731
Wh	-7732
gest	-7733
▁pull	-7734
▁presses	-7735
▁10000)	-7736
vdots	-7737
▁bigger	-7738
▁Last	-7739
▁clust	-7740
▁guessed	-7741
▁[1],	-7742
▁10^6.	-7743
▁mice	-7744
▁dimension	-7745
rror	-7746
▁anten	-7747
ibility	-7748
\}$.	-7749
▁Person	-7750
▁transforms	-7751
▁Euclidean	-7752
▁6],	-7753
▁charged	-7754
[2	-7755
▁encounter	-7756
▁med	-7757
▁AP	-7758
▁offered	-7759
▁fights	-7760
▁resource	-7761
IB	-7762
▁opens	-7763
ifications	-7764
▁18.	-7765
subsequence	-7766
▁rotating	-7767
dden	-7768
▁sudden	-7769
▁Nom	-7770
ietnamese	-7771
▁knowledge	-7772
▁Mik	-7773
▁"\],	-7774
▁lexicographic	-7775
▁23,	-7776
▁college	-7777
_2),	-7778
▁simplified	-7779
▁Cup	-7780
▁{{1,	-7781
▁White	-7782
▁dominant	-7783
▁hexadecimal	-7784
▁Tokitsukaze	-7785
ит	-7786
▁Anna	-7787
▁velocity	-7788
▁centers	-7789
▁signature	-7790
bac	-7791
may	-7792
▁imple	-7793
Tree	-7794
abcabc	-7795
▁10^5$	-7796
▁lift	-7797
▁6-	-7798
_2.	-7799
▁10^{9}$	-7800
itors	-7801
▁"\],\[	-7802
▁0110	-7803
▁carrot	-7804
▁Rick	-7805
ferent	-7806
Bob	-7807
▁Ri	-7808
▁forever	-7809
#.#.	-7810
▁-0.	-7811
▁cyclically	-7812
▁links	-7813
▁wild	-7814
avior	-7815
[3]	-7816
▁(0-	-7817
rec	-7818
▁3]$	-7819
▁0'	-7820
▁commit	-7821
▁util	-7822
▁cd	-7823
▁outer	-7824
1,2,3	-7825
▁treated	-7826
▁..........	-7827
asing	-7828
▁lecture	-7829
pairs	-7830
▁coincides	-7831
▁grand	-7832
sels	-7833
score	-7834
2,...,	-7835
85	-7836
▁automatically	-7837
iring	-7838
▁Sk	-7839
▁Outputs	-7840
▁convey	-7841
▁ribb	-7842
▁extr	-7843
▁atoms	-7844
▁bat	-7845
▁eyes	-7846
banana	-7847
▁10$	-7848
▁Maximum	-7849
▁collects	-7850
aste	-7851
▁lane	-7852
acy	-7853
▁о	-7854
|---	-7855
▁trade	-7856
`-	-7857
▁10^6,	-7858
▁inhab	-7859
ret	-7860
▁specify	-7861
ened	-7862
▁minus	-7863
▁Martian	-7864
▁blow	-7865
UR	-7866
"`,	-7867
*..	-7868
▁Integer	-7869
▁bes	-7870
▁reply	-7871
▁mel	-7872
},{	-7873
▁herself	-7874
▁231	-7875
▁1000$	-7876
card	-7877
▁Christmas	-7878
65	-7879
▁1}^{	-7880
▁vessels	-7881
AK	-7882
tains	-7883
▁micro	-7884
1\],\[	-7885
▁106,	-7886
lab	-7887
▁30.	-7888
▁Yu	-7889
▁128	-7890
▁(10,	-7891
repres	-7892
▁bour	-7893
▁pond	-7894
▁fans	-7895
▁nearby	-7896
▁hexagon	-7897
1,3,	-7898
▁10^{-6}.	-7899
▁crow	-7900
▁generator	-7901
▁OK	-7902
▁wide	-7903
._	-7904
▁frequent	-7905
1+	-7906
▁Valent	-7907
▁consum	-7908
▁traverse	-7909
▁$11	-7910
mended	-7911
▁platforms	-7912
▁Ci	-7913
▁clothes	-7914
back	-7915
▁40,	-7916
▁wooden	-7917
▁attributes	-7918
▁fine	-7919
▁bike	-7920
▁layers	-7921
▁central	-7922
▁selection	-7923
▁109.	-7924
▁Zoo	-7925
finite	-7926
ander	-7927
Subt	-7928
oku	-7929
▁listening	-7930
▁somewhere	-7931
jacency	-7932
▁checking	-7933
▁finals	-7934
occ	-7935
▁Explaination	-7936
▁rabbits	-7937
▁`5	-7938
▁10-	-7939
▁schedu	-7940
hour	-7941
▁$(0,	-7942
\})	-7943
▁owns	-7944
pattern	-7945
▁Out	-7946
▁liqu	-7947
cribed	-7948
▁"1".	-7949
▁athlete	-7950
▁compared	-7951
▁$[4,	-7952
sy	-7953
▁0$.	-7954
63	-7955
▁modification	-7956
▁pig	-7957
▁(-1	-7958
▁heard	-7959
▁94	-7960
autiful	-7961
▁effective	-7962
▁grows	-7963
termedi	-7964
▁celebrate	-7965
isible	-7966
▁peace	-7967
▁comments	-7968
▁ik	-7969
▁greedy	-7970
▁Dec	-7971
▁Mars	-7972
turtle	-7973
▁travelling	-7974
▁frequencies	-7975
Max	-7976
▁"*	-7977
▁drives	-7978
rat	-7979
▁properly	-7980
lets	-7981
lished	-7982
▁windows	-7983
▁314	-7984
▁Olya	-7985
▁Assuming	-7986
▁resident	-7987
=7	-7988
▁whenever	-7989
▁background	-7990
▁24,	-7991
▁dum	-7992
▁perm	-7993
ius	-7994
▁conv	-7995
▁⌈	-7996
▁5].	-7997
aming	-7998
▁Aoki	-7999
▁Currently	-8000
▁recommended	-8001
▁-3,	-8002
▁4;	-8003
▁understood	-8004
▁kings	-8005
▁{4,	-8006
869	-8007
▁seem	-8008
▁neg	-8009
^2)	-8010
▁rubber	-8011
}_	-8012
~~	-8013
▁author	-8014
▁brightness	-8015
geq	-8016
200	-8017
▁festival	-8018
cat	-8019
▁Professor	-8020
▁Bel	-8021
ada	-8022
▁1000000007.	-8023
ii	-8024
▁pushed	-8025
▁session	-8026
▁completing	-8027
▁yourself	-8028
▁bamboos	-8029
▁prec	-8030
++++++++++++++++	-8031
▁Han	-8032
▁logs	-8033
▁visitors	-8034
▁2.5	-8035
=1$	-8036
▁reaching	-8037
▁Mir	-8038
▁Omkar	-8039
▁intermedi	-8040
total	-8041
▁+=	-8042
▁spider	-8043
nie	-8044
quis	-8045
▁agreed	-8046
▁zi	-8047
1\],	-8048
▁Just	-8049
▁gang	-8050
▁;	-8051
▁requested	-8052
▁possibilities	-8053
▁Li	-8054
lower	-8055
ala	-8056
asons	-8057
▁warrior	-8058
inity	-8059
▁enumerated	-8060
+6	-8061
▁prim	-8062
exc	-8063
▁squared	-8064
▁circum	-8065
▁prevent	-8066
▁latest	-8067
▁121	-8068
▁*.	-8069
▁Idleness	-8070
▁Hamming	-8071
▁awarded	-8072
61	-8073
mark	-8074
OSS	-8075
▁creature	-8076
▁rays	-8077
usted	-8078
▁bounds	-8079
▁decry	-8080
▁Kolya	-8081
▁cancel	-8082
▁$5$,	-8083
▁wondered	-8084
=10	-8085
abba	-8086
▁$2\	-8087
atives	-8088
▁walle	-8089
▁episode	-8090
Ne	-8091
\[1\]	-8092
▁launch	-8093
▁800	-8094
xim	-8095
▁classif	-8096
▁spiders	-8097
▁3$.	-8098
▁settle	-8099
MP	-8100
RG	-8101
-1).	-8102
▁images	-8103
hail	-8104
▁ur	-8105
▁zombie	-8106
▁weapon	-8107
1,1,1,	-8108
▁whom	-8109
tee	-8110
(0	-8111
MMMM	-8112
maximum	-8113
▁jok	-8114
▁haven	-8115
▁sport	-8116
ading	-8117
mes	-8118
▁sequentially	-8119
▁equality	-8120
▁adjacency	-8121
▁bytes	-8122
▁especially	-8123
night	-8124
▁castles	-8125
arrays	-8126
▁Victor	-8127
GCD	-8128
▁teach	-8129
▁conqu	-8130
▁`0`.	-8131
▁whereas	-8132
▁warriors	-8133
1$	-8134
pects	-8135
▁sleeping	-8136
▁Design	-8137
▁ray	-8138
▁Chand	-8139
▁tet	-8140
▁freely	-8141
\}$,	-8142
▁compe	-8143
oming	-8144
▁disks	-8145
▁halves	-8146
▁vehicle	-8147
mons	-8148
▁1337	-8149
▁enjo	-8150
▁160	-8151
▁flipped	-8152
kete	-8153
▁Cir	-8154
▁slime	-8155
▁diagram	-8156
49	-8157
▁mistakes	-8158
▁bug	-8159
▁obviously	-8160
▁typing	-8161
▁2$.	-8162
ainted	-8163
adget	-8164
1"	-8165
▁harv	-8166
▁$-1$.	-8167
▁shooting	-8168
▁□□□	-8169
gment	-8170
▁Word	-8171
▁cartons	-8172
▁descend	-8173
▁inversion	-8174
▁Rat	-8175
▁4$	-8176
▁82	-8177
/(2)	-8178
·1	-8179
sequences	-8180
5),	-8181
oly	-8182
hopper	-8183
▁saved	-8184
olas	-8185
▁encl	-8186
post	-8187
bbb	-8188
▁Rs	-8189
ashm	-8190
▁loss	-8191
▁weather	-8192
search	-8193
▁calculator	-8194
▁yn	-8195
▁assignments	-8196
▁#..	-8197
▁ske	-8198
▁concatenate	-8199
▁500000	-8200
▁rod	-8201
VV	-8202
▁guit	-8203
▁identified	-8204
▁prison	-8205
▁biggest	-8206
▁Whe	-8207
▁sector	-8208
▁belt	-8209
▁dollar	-8210
▁speeds	-8211
▁rj	-8212
etime	-8213
['	-8214
▁`-	-8215
+9	-8216
▁creates	-8217
▁==>	-8218
oub	-8219
conom	-8220
sent	-8221
▁millil	-8222
▁muskete	-8223
=3.	-8224
▁106.	-8225
▁pupils	-8226
Name	-8227
▁'?'	-8228
▁4},	-8229
pto	-8230
▁Many	-8231
▁matryosh	-8232
▁competitions	-8233
0],[	-8234
▁$0$,	-8235
▁milk	-8236
▁script	-8237
ural	-8238
ubes	-8239
izer	-8240
riday	-8241
71	-8242
▁guarantee	-8243
Data	-8244
rical	-8245
▁illum	-8246
▁souvenirs	-8247
▁doctor	-8248
▁Pavel	-8249
▁Graph	-8250
Cost	-8251
▁convenient	-8252
▁identity	-8253
ис	-8254
▁#1:	-8255
▁nin	-8256
SA	-8257
($	-8258
WWWW	-8259
▁"("	-8260
▁numeric	-8261
ira	-8262
▁consonants	-8263
Com	-8264
vation	-8265
▁01010	-8266
▁liked	-8267
▁behavior	-8268
▁crossing	-8269
ienced	-8270
▁serial	-8271
distinct	-8272
▁compose	-8273
▁traveled	-8274
oving	-8275
▁10^5;	-8276
riger	-8277
swords	-8278
▁Put	-8279
going	-8280
▁suddenly	-8281
▁tangerine	-8282
▁1011	-8283
▁353.	-8284
▁female	-8285
▁2000,	-8286
▁slice	-8287
▁refriger	-8288
▁landing	-8289
ignment	-8290
ccc	-8291
▁7],	-8292
▁bic	-8293
expression	-8294
posal	-8295
▁denominator	-8296
power	-8297
▁sales	-8298
▁walrus	-8299
▁ratings	-8300
oured	-8301
▁clever	-8302
▁unfortunately	-8303
▁Ru	-8304
▁late	-8305
▁wouldn	-8306
▁Although	-8307
▁appearing	-8308
uba	-8309
pad	-8310
▁funny	-8311
▁3^	-8312
son	-8313
▁theore	-8314
93	-8315
▁ρ	-8316
positive	-8317
▁upv	-8318
▁intermediate	-8319
▁Dasha	-8320
00)	-8321
abra	-8322
▁shuffling	-8323
▁efficiently	-8324
▁tastiness	-8325
=3$	-8326
IBLE	-8327
▁Geek	-8328
▁thief	-8329
▁transaction	-8330
RRR	-8331
▁9]	-8332
flow	-8333
▁namely	-8334
▁deque	-8335
plete	-8336
▁Shi	-8337
▁Sever	-8338
▁00000000	-8339
▁`4	-8340
▁replacements	-8341
}|	-8342
▁analys	-8343
▁respond	-8344
▁reversing	-8345
orph	-8346
fre	-8347
▁hint	-8348
▁checked	-8349
▁Symbol	-8350
yen	-8351
onic	-8352
▁47,	-8353
▁libraries	-8354
▁Minimum	-8355
▁Scoring	-8356
▁($3	-8357
▁demolish	-8358
▁dict	-8359
▁gran	-8360
IP	-8361
uccess	-8362
win	-8363
▁Rub	-8364
▁signed	-8365
▁cooking	-8366
oresc	-8367
)(	-8368
▁fer	-8369
largest	-8370
▁mob	-8371
cb	-8372
▁defeated	-8373
uit	-8374
▁indirect	-8375
▁recent	-8376
▁5;	-8377
Script	-8378
▁guesses	-8379
reach	-8380
▁`[0,	-8381
)),	-8382
{2}	-8383
▁[-1,	-8384
▁000000	-8385
▁began	-8386
▁Ab	-8387
▁vary	-8388
edge	-8389
▁probably	-8390
OSSIBLE	-8391
hijkl	-8392
▁Vertices	-8393
▁temperatures	-8394
▁nine	-8395
▁atleast	-8396
}^{	-8397
▁"-1".	-8398
▁sphere	-8399
smallest	-8400
▁preorder	-8401
▁rocket	-8402
.5	-8403
anu	-8404
▁cj	-8405
▁ck	-8406
▁asph	-8407
▁introduced	-8408
▁accident	-8409
▁overlapping	-8410
roid	-8411
_1+	-8412
▁discuss	-8413
▁fridge	-8414
▁tails	-8415
▁(7	-8416
▁verify	-8417
▁tot	-8418
▁estimate	-8419
▁Great	-8420
▁Natasha	-8421
▁ell	-8422
example	-8423
+1$	-8424
town	-8425
▁trol	-8426
▁87	-8427
▁67	-8428
iver	-8429
▁studies	-8430
ENT	-8431
▁73	-8432
▁Integers	-8433
▁reasons	-8434
_1),	-8435
▁1}.	-8436
▁flipping	-8437
▁Insert	-8438
▁examination	-8439
▁recipe	-8440
▁!!!	-8441
idence	-8442
▁Starting	-8443
▁Subtasks	-8444
ruce	-8445
-+	-8446
▁mapping	-8447
▁rearrangement	-8448
▁prede	-8449
▁simulate	-8450
▁$8$	-8451
▁$3$:	-8452
riers	-8453
▁related	-8454
▁Jo	-8455
▁force	-8456
▁stdin	-8457
range	-8458
▁mole	-8459
▁Multiple	-8460
▁Lev	-8461
▁decoded	-8462
RU	-8463
▁advent	-8464
▁kilograms	-8465
▁purchased	-8466
▁remo	-8467
▁stor	-8468
▁100000)	-8469
▁|4	-8470
▁polar	-8471
▁HP	-8472
▁probabilities	-8473
▁raise	-8474
▁rice	-8475
▁fingers	-8476
▁Jh	-8477
▁equipro	-8478
▁pron	-8479
▁cheese	-8480
▁econom	-8481
▁drivers	-8482
paper	-8483
▁$[0,	-8484
▁splits	-8485
avan	-8486
▁Lucky	-8487
▁carried	-8488
▁George	-8489
▁"5	-8490
okh	-8491
▁dom	-8492
=$	-8493
bel	-8494
0],	-8495
▁monot	-8496
hood	-8497
ef	-8498
▁recursion	-8499
▁[5	-8500
▁harm	-8501
degenerate	-8502
reatest	-8503
▁satisfaction	-8504
ork	-8505
olve	-8506
▁0.4	-8507
hedron	-8508
qrst	-8509
▁electron	-8510
▁shuffled	-8511
▁checkpoints	-8512
indices	-8513
isks	-8514
▁shel	-8515
▁hills	-8516
▁{2}	-8517
▁[8,	-8518
acted	-8519
▁bourles	-8520
#.#	-8521
▁golden	-8522
▁banana	-8523
ед	-8524
▁patch	-8525
▁Turn	-8526
▁thrown	-8527
▁developed	-8528
)`.	-8529
▁Ko	-8530
▁HTML	-8531
▁125	-8532
=2$	-8533
▁456	-8534
▁abac	-8535
orphic	-8536
+2)	-8537
+1]	-8538
▁ABBYY	-8539
▁dragons	-8540
▁telling	-8541
▁milliliters	-8542
mail	-8543
isa	-8544
\[0\]	-8545
▁'1'.	-8546
del	-8547
▁category	-8548
▁returning	-8549
▁diagonally	-8550
▁reve	-8551
▁Aj	-8552
amb	-8553
ansion	-8554
▁Ehab	-8555
estamp	-8556
▁$5$.	-8557
▁105;	-8558
▁ramp	-8559
▁Dif	-8560
▁contacts	-8561
user	-8562
▁exlog	-8563
000000000000	-8564
▁xk	-8565
longest	-8566
▁scroll	-8567
▁Fi	-8568
▁issue	-8569
▁formats	-8570
coder	-8571
▁volumes	-8572
▁Well	-8573
▁heav	-8574
▁carrots	-8575
move	-8576
▁compete	-8577
▁4]$	-8578
▁toward	-8579
▁Several	-8580
>).	-8581
John	-8582
▁(1)	-8583
▁pressing	-8584
▁particle	-8585
▁Vitaly	-8586
▁prizes	-8587
▁Perform	-8588
▁laun	-8589
▁drew	-8590
▁Matrix	-8591
▁abba	-8592
▁3},	-8593
▁[2]	-8594
▁π	-8595
▁xy	-8596
poses	-8597
▁admin	-8598
▁gathered	-8599
Pos	-8600
62	-8601
▁transportation	-8602
▁DP	-8603
▁Jeff	-8604
▁`.	-8605
▁infloresc	-8606
dog	-8607
1]]	-8608
▁calories	-8609
▁gn	-8610
esome	-8611
▁Tavas	-8612
▁φ	-8613
If	-8614
aman	-8615
ivil	-8616
▁(30	-8617
▁rose	-8618
▁20)	-8619
ication	-8620
▁fractions	-8621
▁12345	-8622
▁Qwerty	-8623
▁50).	-8624
▁bucket	-8625
▁|5	-8626
▁Strings	-8627
1,2,3,	-8628
▁branch	-8629
▁manually	-8630
▁attract	-8631
▁wonderful	-8632
digits	-8633
▁pencils	-8634
47	-8635
vv	-8636
odd	-8637
limits	-8638
}$).	-8639
159	-8640
pp	-8641
▁Que	-8642
▁thick	-8643
▁2·105,	-8644
lon	-8645
▁JS	-8646
▁Sp	-8647
▁332	-8648
▁watches	-8649
▁wealth	-8650
price	-8651
='	-8652
▁104).	-8653
▁potato	-8654
▁histogram	-8655
▁·	-8656
▁Inn	-8657
▁Jhool	-8658
azing	-8659
▁NumPy	-8660
▁repet	-8661
▁MST	-8662
table	-8663
formatics	-8664
▁harder	-8665
bre	-8666
▁.*.	-8667
▁numeral	-8668
▁unless	-8669
sorting	-8670
7,7,	-8671
▁93	-8672
▁(-10^9	-8673
bek	-8674
▁env	-8675
▁comma	-8676
▁intelligence	-8677
▁Robot	-8678
▁impact	-8679
▁warm	-8680
PS	-8681
▁fac	-8682
float	-8683
\:	-8684
▁alien	-8685
▁approxim	-8686
▁subtraction	-8687
di	-8688
▁laser	-8689
▁pandas	-8690
OX	-8691
▁male	-8692
ema	-8693
▁Hacks	-8694
)))	-8695
uvw	-8696
Code	-8697
izzas	-8698
"],["	-8699
▁ruler	-8700
▁0<	-8701
lent	-8702
▁"1",	-8703
▁trouble	-8704
▁sj	-8705
10^4	-8706
▁refrigerator	-8707
_4,	-8708
ollow	-8709
▁Jiro	-8710
▁ellip	-8711
▁Sa	-8712
▁birds	-8713
▁Players	-8714
▁Requirements	-8715
▁executable	-8716
ан	-8717
▁CL	-8718
▁'+'	-8719
▁placement	-8720
2,4,	-8721
▁usage	-8722
▁Town	-8723
▁Buy	-8724
▁highway	-8725
▁statistics	-8726
portun	-8727
],[3,	-8728
*...	-8729
2857	-8730
▁clo	-8731
▁villages	-8732
TH	-8733
zh	-8734
▁3$,	-8735
▁opportun	-8736
▁⌋	-8737
$):	-8738
▁determining	-8739
▁10^{4}	-8740
aabb	-8741
▁gun	-8742
▁Ni	-8743
▁pillars	-8744
▁prefers	-8745
▁1018).	-8746
▁lake	-8747
either	-8748
iod	-8749
▁10^{18})	-8750
▁100;	-8751
▁wheel	-8752
▁somebody	-8753
▁rad	-8754
▁newly	-8755
▁peak	-8756
▁conversation	-8757
▁accompl	-8758
aches	-8759
▁wallet	-8760
▁download	-8761
▁delivered	-8762
Pr	-8763
998	-8764
▁5$	-8765
boards	-8766
}{2	-8767
chers	-8768
▁diagonals	-8769
erequis	-8770
▁0101	-8771
▁director	-8772
▁paints	-8773
></	-8774
coming	-8775
▁Adilbek	-8776
▁Kata	-8777
change	-8778
▁identifiers	-8779
abac	-8780
▁1]$.	-8781
([1,	-8782
itary	-8783
▁filling	-8784
'-'	-8785
▁(20	-8786
▁shared	-8787
▁clearly	-8788
▁bot	-8789
▁parity	-8790
▁review	-8791
{}	-8792
▁rupe	-8793
▁$3$-	-8794
omorphic	-8795
▁ranking	-8796
▁aabb	-8797
▁lj	-8798
2\],\[	-8799
=2.	-8800
▁mobile	-8801
\%	-8802
base	-8803
rest	-8804
10000	-8805
▁oven	-8806
▁Sequence	-8807
▁Roma	-8808
▁encode	-8809
conds	-8810
otu	-8811
▁oly	-8812
▁cope	-8813
▁1...	-8814
▁ahead	-8815
▁periodic	-8816
▁illustrates	-8817
▁quar	-8818
▁compart	-8819
▁sweetness	-8820
▁@	-8821
▁ACM	-8822
▁hired	-8823
▁hacker	-8824
notes	-8825
▁pronoun	-8826
▁showed	-8827
▁fell	-8828
spec	-8829
only	-8830
▁pers	-8831
▁inclusively	-8832
▁sons	-8833
▁client	-8834
▁attribute	-8835
osed	-8836
▁estab	-8837
▁Information	-8838
▁collecting	-8839
▁guitar	-8840
aze	-8841
▁Kuro	-8842
▁(1,2)	-8843
iana	-8844
▁cafe	-8845
▁magn	-8846
▁10^6),	-8847
▁[9,	-8848
▁equil	-8849
▁balloon	-8850
▁opponents	-8851
▁teachers	-8852
▁cock	-8853
▁`2`	-8854
▁engineer	-8855
▁joined	-8856
▁plank	-8857
▁Everybody	-8858
road	-8859
▁indexing	-8860
▁juic	-8861
▁taste	-8862
bably	-8863
▁sending	-8864
▁shifted	-8865
▁updated	-8866
▁pj	-8867
▁Dav	-8868
ogle	-8869
▁alb	-8870
▁percentage	-8871
▁amb	-8872
▁123456789	-8873
▁AT	-8874
▁Tri	-8875
Problem	-8876
▁submit	-8877
▁fibonacci	-8878
▁AtCoder	-8879
▁zone	-8880
▁lantern	-8881
▁bench	-8882
▁Has	-8883
▁flies	-8884
▁8),	-8885
)?	-8886
berry	-8887
▁exception	-8888
▁{}	-8889
▁"+"	-8890
▁512.0	-8891
^^^^	-8892
function	-8893
▁possibility	-8894
fit	-8895
ionship	-8896
4,5	-8897
▁ports	-8898
\*	-8899
sequently	-8900
BC	-8901
▁sugg	-8902
▁princ	-8903
▁staying	-8904
▁targets	-8905
▁proceeds	-8906
▁22.	-8907
▁North	-8908
▁merged	-8909
▁300)	-8910
▁beer	-8911
▁activity	-8912
▁kg	-8913
▁cas	-8914
itical	-8915
▁######	-8916
▁lived	-8917
▁0.8	-8918
▁measurements	-8919
▁backwards	-8920
▁involves	-8921
▁"`,	-8922
▁pd	-8923
▁},	-8924
ictionary	-8925
1).	-8926
▁"10	-8927
omer	-8928
Value	-8929
▁Met	-8930
ildren	-8931
▁arranging	-8932
▁ens	-8933
▁beforehand	-8934
▁asleep	-8935
▁videos	-8936
EST	-8937
▁somehow	-8938
FO	-8939
▁tall	-8940
astic	-8941
▁resist	-8942
▁intens	-8943
▁explor	-8944
▁calling	-8945
▁sense	-8946
▁Mole	-8947
,1	-8948
▁hop	-8949
▁fart	-8950
▁cookie	-8951
▁0≤	-8952
Dig	-8953
mnop	-8954
▁fare	-8955
▁Pie	-8956
nn	-8957
ION	-8958
▁ON	-8959
▁Road	-8960
▁Below	-8961
▁boards	-8962
▁Magic	-8963
▁5|	-8964
values	-8965
ader	-8966
▁pk	-8967
▁chap	-8968
???	-8969
▁(=	-8970
▁specifies	-8971
IE	-8972
▁newsp	-8973
▁mechan	-8974
sided	-8975
▁movies	-8976
▁relationships	-8977
▁picking	-8978
▁Empire	-8979
▁1/2	-8980
raft	-8981
▁facts	-8982
▁Arth	-8983
▁batch	-8984
▁grapes	-8985
ointed	-8986
letes	-8987
▁Repe	-8988
▁pawns	-8989
2`,	-8990
:59	-8991
▁`-1`	-8992
▁frames	-8993
▁"12	-8994
▁challenges	-8995
low	-8996
amation	-8997
▁predefined	-8998
\\\	-8999
▁excl	-9000
ICK	-9001
▁mm	-9002
▁alphanumeric	-9003
▁streak	-9004
▁Naturally	-9005
▁Geo	-9006
▁ribbon	-9007
▁spaceships	-9008
▁candles	-9009
▁winners	-9010
▁Mad	-9011
▁Wal	-9012
▁encrypt	-9013
▁Ti	-9014
coins	-9015
group	-9016
▁priv	-9017
▁1,000,	-9018
cores	-9019
▁10^{6	-9020
abe	-9021
▁Karen	-9022
▁Such	-9023
▁112	-9024
▁exerc	-9025
▁organized	-9026
eep	-9027
▁confl	-9028
zo	-9029
Be	-9030
-1},	-9031
▁tunnels	-9032
entation	-9033
▁Round	-9034
(1).	-9035
1100	-9036
Not	-9037
ols	-9038
▁tru	-9039
field	-9040
▁Student	-9041
▁tou	-9042
▁touching	-9043
hor	-9044
▁Change	-9045
Right	-9046
▁nm	-9047
gen	-9048
▁jacket	-9049
▁cinema	-9050
▁cham	-9051
▁opin	-9052
▁goals	-9053
comes	-9054
▁frogs	-9055
▁Luckily	-9056
ika	-9057
▁220	-9058
▁900	-9059
oxide	-9060
▁judges	-9061
▁scissors	-9062
▁09	-9063
▁Firstly	-9064
▁carefully	-9065
iam	-9066
▁210	-9067
▁{5,	-9068
oad	-9069
anas	-9070
aughter	-9071
▁carrying	-9072
mate	-9073
▁dies	-9074
▁sr	-9075
▁Are	-9076
▁originally	-9077
▁spiral	-9078
▁0.3	-9079
▁mine	-9080
▁8-	-9081
▁wasn	-9082
▁merging	-9083
ING	-9084
angles	-9085
▁Fr	-9086
city	-9087
erry	-9088
▁1101	-9089
mentioned	-9090
▁structures	-9091
▁Sing	-9092
▁Convert	-9093
▁School	-9094
▁burger	-9095
▁cold	-9096
▁dioxide	-9097
gh	-9098
▁unders	-9099
<<<<<<<<	-9100
starting	-9101
▁assistant	-9102
▁dormitory	-9103
▁banknotes	-9104
▁Reg	-9105
▁fertil	-9106
▁Dig	-9107
▁weigh	-9108
▁24.	-9109
▁Evil	-9110
▁(8,	-9111
▁$[5,	-9112
▁acceler	-9113
=9	-9114
4\],\[	-9115
▁centered	-9116
▁hh	-9117
Russian	-9118
▁Jul	-9119
1;	-9120
▁5},	-9121
▁looked	-9122
▁BW	-9123
▁devices	-9124
▁alternately	-9125
▁(∑	-9126
"`.	-9127
▁expectation	-9128
2\],	-9129
▁album	-9130
erspace	-9131
▁zigzag	-9132
▁magnet	-9133
zzhu	-9134
ooth	-9135
▁rare	-9136
parent	-9137
▁dancers	-9138
0001	-9139
▁Jzzhu	-9140
(5,	-9141
balance	-9142
▁touches	-9143
▁apartments	-9144
▁treasures	-9145
vous	-9146
lighted	-9147
Qu	-9148
▁mixed	-9149
=5,	-9150
Count	-9151
colored	-9152
▁130	-9153
▁reverses	-9154
▁10]	-9155
▁president	-9156
46	-9157
'],	-9158
▁Nth	-9159
▁major	-9160
world	-9161
▁Character	-9162
▁threads	-9163
cean	-9164
▁menu	-9165
▁maybe	-9166
▁alphabetically	-9167
ques	-9168
▁hope	-9169
▁advant	-9170
▁attacking	-9171
▁Vasily	-9172
▁announced	-9173
▁merch	-9174
869120	-9175
Pl	-9176
has	-9177
▁implies	-9178
▁cab	-9179
oint	-9180
defghijkl	-9181
▁Draw	-9182
▁5000,	-9183
▁kilometer	-9184
▁nonnegative	-9185
▁(0,0)	-9186
esterday	-9187
▁technique	-9188
▁organizing	-9189
▁Those	-9190
119	-9191
aled	-9192
▁Kir	-9193
▁slimes	-9194
▁crush	-9195
▁Rabbit	-9196
▁audience	-9197
▁transformations	-9198
|1	-9199
▁hang	-9200
tery	-9201
’,	-9202
▁advan	-9203
▁rated	-9204
▁')'	-9205
▁early	-9206
▁Contest	-9207
5,6	-9208
▁resear	-9209
▁scientist	-9210
▁snip	-9211
▁experienced	-9212
мо	-9213
▁Incre	-9214
▁loser	-9215
▁4.0	-9216
▁ranked	-9217
▁knowing	-9218
▁incident	-9219
icing	-9220
▁'1',	-9221
▁prot	-9222
▁7$.	-9223
▁Fat	-9224
▁Ann	-9225
▁pasture	-9226
▁achievable	-9227
/2)	-9228
▁faced	-9229
illy	-9230
▁older	-9231
xxx	-9232
▁liquid	-9233
▁antenna	-9234
▁JSON	-9235
▁Look	-9236
▁$9$	-9237
▁\\)	-9238
mber	-9239
▁467	-9240
▁gap	-9241
▁hos	-9242
во	-9243
Size	-9244
▁jokers	-9245
▁___	-9246
▁chains	-9247
factor	-9248
▁strateg	-9249
▁turning	-9250
▁carbon	-9251
▁mex	-9252
▁discard	-9253
aku	-9254
▁(\(	-9255
▁Shadow	-9256
poration	-9257
arters	-9258
▁123456	-9259
kun	-9260
▁'2	-9261
▁cans	-9262
▁($-	-9263
▁paired	-9264
yan	-9265
anda	-9266
▁Hacker	-9267
▁multiverse	-9268
letter	-9269
▁outgoing	-9270
free	-9271
character	-9272
▁tweet	-9273
▁bubble	-9274
▁2);	-9275
▁fresh	-9276
So	-9277
tel	-9278
▁pal	-9279
▁95	-9280
▁software	-9281
▁statue	-9282
▁+1	-9283
3\],	-9284
direct	-9285
▁yEs	-9286
▁pointing	-9287
▁frequently	-9288
append	-9289
▁containers	-9290
overs	-9291
▁BBB	-9292
▁Mikhail	-9293
▁safely	-9294
▁conveyor	-9295
AP	-9296
{'	-9297
▁aliens	-9298
▁accordingly	-9299
/5	-9300
▁DFS	-9301
▁transf	-9302
node	-9303
pressed	-9304
▁proport	-9305
▁stickers	-9306
▁traveler	-9307
▁fn	-9308
▁10^3)	-9309
▁Prime	-9310
▁kills	-9311
12.	-9312
1,1,1,1,	-9313
43	-9314
▁Wet	-9315
▁Universe	-9316
3,3,	-9317
▁transactions	-9318
2.5	-9319
Case	-9320
▁captured	-9321
ход	-9322
happy	-9323
han	-9324
_,	-9325
▁survive	-9326
▁circuit	-9327
▁Pa	-9328
sentence	-9329
▁responsible	-9330
▁Between	-9331
▁10101	-9332
three	-9333
characters	-9334
▁eliminated	-9335
process	-9336
;/	-9337
▁dimensional	-9338
▁Raj	-9339
▁Olymp	-9340
ABAB	-9341
+(	-9342
▁communicate	-9343
▁slow	-9344
keeper	-9345
|),	-9346
▁(9,	-9347
▁snippet	-9348
▁Friday	-9349
▁categor	-9350
▁observed	-9351
books	-9352
+1.	-9353
▁agree	-9354
▁#2:	-9355
▁strand	-9356
▁collision	-9357
▁apartment	-9358
▁processor	-9359
ui	-9360
oniu	-9361
▁vessel	-9362
▁Boboniu	-9363
▁captain	-9364
▁lawn	-9365
▁entirely	-9366
▁Limit	-9367
▁200.	-9368
▁opportunity	-9369
▁bishop	-9370
▁pencil	-9371
arten	-9372
▁devel	-9373
▁daughter	-9374
result	-9375
▁failed	-9376
▁barrel	-9377
4:	-9378
teen	-9379
▁turbo	-9380
ga	-9381
▁upto	-9382
▁bananas	-9383
+2}	-9384
orean	-9385
▁wash	-9386
etr	-9387
urs	-9388
▁participated	-9389
▁kang	-9390
▁default	-9391
core	-9392
^4	-9393
ublic	-9394
queries	-9395
▁knew	-9396
9]	-9397
▁valu	-9398
▁applies	-9399
OSE	-9400
ensi	-9401
▁doub	-9402
▁susp	-9403
▁"()()	-9404
▁trust	-9405
▁Bertown	-9406
▁seventh	-9407
train	-9408
dc	-9409
▁turbopl	-9410
·3	-9411
▁Delete	-9412
▁substitution	-9413
▁advantage	-9414
block	-9415
▁0001	-9416
▁dancing	-9417
▁BB	-9418
"}	-9419
rian	-9420
▁phase	-9421
▁precision	-9422
▁Shiro	-9423
inate	-9424
▁Weight	-9425
▁production	-9426
icious	-9427
▁suggest	-9428
▁breaking	-9429
nx	-9430
afa	-9431
+\	-9432
...#	-9433
▁nearly	-9434
10]	-9435
▁bake	-9436
issible	-9437
▁destinations	-9438
▁curve	-9439
imir	-9440
haps	-9441
______	-9442
▁ideal	-9443
▁musketeers	-9444
▁concept	-9445
▁difficulties	-9446
1],[	-9447
▁numerator	-9448
1,2\],\[	-9449
▁ner	-9450
achment	-9451
▁losing	-9452
uu	-9453
▁106),	-9454
|).	-9455
olor	-9456
arts	-9457
zil	-9458
▁7),	-9459
▁pickup	-9460
▁organization	-9461
asy	-9462
▁rich	-9463
▁development	-9464
▁unfair	-9465
▁reserve	-9466
ozha	-9467
pen	-9468
▁744,	-9469
▁obvious	-9470
▁confused	-9471
write	-9472
▁tubes	-9473
▁depar	-9474
▁Internet	-9475
▁clubs	-9476
▁inverse	-9477
sets	-9478
▁brains	-9479
▁Students	-9480
▁Shark	-9481
▁rupees	-9482
▁Repres	-9483
=8	-9484
▁fails	-9485
stone	-9486
▁sock	-9487
▁drops	-9488
▁analysis	-9489
▁Tw	-9490
weet	-9491
▁bands	-9492
▁enjoys	-9493
▁[3,2,	-9494
▁fur	-9495
▁beaver	-9496
▁concert	-9497
▁conquer	-9498
▁HH	-9499
▁asterisks	-9500
▁proceed	-9501
▁disappears	-9502
-,	-9503
Ai	-9504
<=1	-9505
▁ow	-9506
▁Enter	-9507
ured	-9508
▁ton	-9509
iques	-9510
reasure	-9511
spe	-9512
▁0|	-9513
▁sandw	-9514
▁(8	-9515
▁$-1$	-9516
▁Arthur	-9517
▁clients	-9518
3).	-9519
mun	-9520
▁Ok	-9521
▁folder	-9522
▁Gory	-9523
6,7	-9524
▁tube	-9525
jan	-9526
swers	-9527
replace	-9528
▁magician	-9529
▁prerequis	-9530
irl	-9531
▁по	-9532
▁pushing	-9533
+1)-	-9534
▁diss	-9535
▁grasshopper	-9536
▁incon	-9537
▁iff	-9538
▁zoo	-9539
▁knock	-9540
▁inconven	-9541
▁whitespace	-9542
▁8]	-9543
▁East	-9544
▁logic	-9545
bow	-9546
ula	-9547
▁cater	-9548
mates	-9549
▁https	-9550
▁Though	-9551
▁poison	-9552
▁foc	-9553
▁mad	-9554
agraph	-9555
▁-10^9	-9556
ti	-9557
▁ped	-9558
▁10000).	-9559
▁⌉	-9560
_3$	-9561
▁144	-9562
▁Luba	-9563
▁\{2,	-9564
▁launched	-9565
class	-9566
▁reward	-9567
▁Everyone	-9568
rows	-9569
equiv	-9570
▁inse	-9571
yk	-9572
ashion	-9573
OW	-9574
usha	-9575
▁cba	-9576
1-	-9577
▁25.	-9578
defghijklmnop	-9579
gre	-9580
Error	-9581
▁combined	-9582
eeks	-9583
omas	-9584
+8	-9585
▁decomposition	-9586
hol	-9587
▁Ten	-9588
11}	-9589
ceed	-9590
▁shelves	-9591
▁intensity	-9592
▁Iahubina	-9593
aker	-9594
▁riding	-9595
It	-9596
▁unsorted	-9597
xz	-9598
▁released	-9599
▁1018)	-9600
td	-9601
▁-20	-9602
▁ninja	-9603
▁resultant	-9604
▁matched	-9605
▁71	-9606
▁rods	-9607
bable	-9608
dat	-9609
such	-9610
▁explos	-9611
▁1≦	-9612
▁IPv	-9613
0000:	-9614
▁waits	-9615
OK	-9616
▁thous	-9617
{"	-9618
esh	-9619
step	-9620
This	-9621
▁artifact	-9622
▁occurred	-9623
▁12)	-9624
inder	-9625
▁treat	-9626
▁reform	-9627
▁administ	-9628
▁asphalt	-9629
));	-9630
▁wake	-9631
▁consumes	-9632
Don	-9633
bar	-9634
▁scan	-9635
▁Pict	-9636
123456789	-9637
▁IOI	-9638
▁acquaint	-9639
=1.	-9640
▁104,	-9641
▁tested	-9642
▁stacked	-9643
geb	-9644
umps	-9645
83	-9646
ooks	-9647
▁Mag	-9648
▁Edge	-9649
▁socket	-9650
ва	-9651
Per	-9652
▁numerals	-9653
▁1`.	-9654
ponses	-9655
▁inflorescence	-9656
▁sugar	-9657
▁bri	-9658
istrib	-9659
▁Metrop	-9660
/4	-9661
▁10^9.	-9662
▁:-	-9663
{|	-9664
inear	-9665
isions	-9666
▁subtrees	-9667
▁preceding	-9668
similar	-9669
[0],	-9670
▁nav	-9671
▁ghosts	-9672
ovation	-9673
Next	-9674
▁Fedor	-9675
▁Main	-9676
▁pts	-9677
▁civil	-9678
87	-9679
lled	-9680
▁HE	-9681
▁"!	-9682
▁rhomb	-9683
▁utensi	-9684
▁conduct	-9685
▁exercises	-9686
GB	-9687
▁6:	-9688
▁watched	-9689
▁>>	-9690
▁`9	-9691
*4	-9692
}),	-9693
▁BN	-9694
▁(2)	-9695
▁Left	-9696
▁driving	-9697
▁Alexey	-9698
Path	-9699
LCM	-9700
iff	-9701
▁clique	-9702
▁indeed	-9703
▁[2;	-9704
▁beds	-9705
▁terminated	-9706
000000000000000	-9707
oop	-9708
▁Nan	-9709
▁OX	-9710
oups	-9711
Unique	-9712
▁William	-9713
SB	-9714
ifting	-9715
GT	-9716
▁tied	-9717
ione	-9718
▁championship	-9719
▁deliciousness	-9720
]])	-9721
▁affected	-9722
▁kick	-9723
▁keeping	-9724
▁cupcakes	-9725
▁terminal	-9726
▁breadboard	-9727
7}	-9728
▁prett	-9729
▁chances	-9730
▁combine	-9731
▁pizzas	-9732
▁science	-9733
▁predicted	-9734
asion	-9735
▁repos	-9736
push	-9737
▁template	-9738
rels	-9739
▁discarded	-9740
▁highlighted	-9741
▁500`	-9742
▁disput	-9743
▁hide	-9744
▁Long	-9745
▁visitor	-9746
ulations	-9747
▁reports	-9748
▁3`	-9749
seq	-9750
#34	-9751
▁chests	-9752
▁Queen	-9753
▁explain	-9754
▁{\	-9755
▁XXX	-9756
▁2500	-9757
▁besides	-9758
ikipedia	-9759
▁Vol	-9760
build	-9761
▁2000.	-9762
▁constructing	-9763
▁\:	-9764
▁unt	-9765
height	-9766
▁sidewalk	-9767
▁2]$.	-9768
▁reflection	-9769
▁subordinates	-9770
▁Captain	-9771
▁polygonal	-9772
home	-9773
stones	-9774
luded	-9775
▁channel	-9776
▁fountain	-9777
▁advert	-9778
An	-9779
ceeded	-9780
▁fashion	-9781
▁100$).	-9782
4),	-9783
▁CD	-9784
▁bx	-9785
▁aligned	-9786
▁submissions	-9787
▁wizards	-9788
▁19.	-9789
WWW	-9790
▁109;	-9791
▁2]$,	-9792
$$$	-9793
▁converting	-9794
```,	-9795
▁slog	-9796
333333	-9797
▁kingdoms	-9798
leaf	-9799
▁tags	-9800
▁challenging	-9801
(2),	-9802
▁sister	-9803
▁Green	-9804
▁envel	-9805
▁accommod	-9806
▁pleasure	-9807
▁entering	-9808
▁Vladimir	-9809
▁">	-9810
▁fib	-9811
-1),	-9812
▁multiplying	-9813
▁ha	-9814
▁2];	-9815
▁\{0,	-9816
▁ignoring	-9817
▁vk	-9818
erem	-9819
▁aven	-9820
▁Ed	-9821
▁Snow	-9822
▁valuable	-9823
ри	-9824
▁bij	-9825
▁Repeat	-9826
▁elections	-9827
▁barn	-9828
▁accumul	-9829
<=10^{	-9830
▁entertain	-9831
789	-9832
▁332748	-9833
▁matryoshka	-9834
eryozha	-9835
▁silver	-9836
7654321	-9837
▁clarification	-9838
2"	-9839
▁5]$	-9840
▁Seryozha	-9841
▁Eug	-9842
▁aware	-9843
CS	-9844
го	-9845
13,	-9846
▁??	-9847
▁Levko	-9848
maybe	-9849
▁strike	-9850
▁officers	-9851
▁var	-9852
▁Permutation	-9853
▁Kr	-9854
▁illustration	-9855
▁consisted	-9856
pc	-9857
AO	-9858
qrstuvw	-9859
bcd	-9860
▁1110	-9861
▁subproblem	-9862
▁storage	-9863
▁estimated	-9864
pie	-9865
green	-9866
▁flats	-9867
oods	-9868
▁3]$.	-9869
▁willing	-9870
▁insertion	-9871
30,	-9872
▁Dora	-9873
▁PC	-9874
dey	-9875
▁AOR	-9876
ythag	-9877
▁Values	-9878
▁234	-9879
abcde	-9880
sticks	-9881
▁submission	-9882
▁Pandey	-9883
▁deletes	-9884
▁handling	-9885
▁Mc	-9886
▁temple	-9887
▁nonzero	-9888
UC	-9889
▁'''	-9890
icular	-9891
▁athletes	-9892
▁summands	-9893
bin	-9894
+...	-9895
itya	-9896
nary	-9897
(10)	-9898
lcm	-9899
________________	-9900
▁bans	-9901
ashmokh	-9902
▁trolley	-9903
▁oriented	-9904
▁machines	-9905
▁beach	-9906
▁Mashmokh	-9907
▁inn	-9908
▁resc	-9909
apsack	-9910
▁everybody	-9911
=2$,	-9912
▁crowd	-9913
▁marriages	-9914
atisfaction	-9915
▁effort	-9916
▁specifying	-9917
*(	-9918
▁proposed	-9919
coloring	-9920
▁workout	-9921
#34;	-9922
▁"",	-9923
▁Valentin	-9924
/1	-9925
▁defense	-9926
▁afore	-9927
▁aforementioned	-9928
▁[0	-9929
:30	-9930
▁carpet	-9931
▁interview	-9932
+++	-9933
▁bak	-9934
▁syn	-9935
Ball	-9936
▁blows	-9937
unt	-9938
▁Pay	-9939
descending	-9940
▁accidentally	-9941
▁Bu	-9942
▁talking	-9943
cv	-9944
▁cred	-9945
▁supplies	-9946
palindrom	-9947
2,5,	-9948
▁Search	-9949
▁distur	-9950
uto	-9951
▁83	-9952
▁gadget	-9953
▁partitioning	-9954
circ	-9955
pack	-9956
▁Mort	-9957
▁lugg	-9958
Second	-9959
▁surprise	-9960
▁JavaScript	-9961
▁cluster	-9962
▁shoes	-9963
▁10^9$),	-9964
▁envelope	-9965
▁300,	-9966
▁dipl	-9967
▁10001	-9968
OT	-9969
▁bold	-9970
bmatrix	-9971
▁snowball	-9972
▁involved	-9973
erland	-9974
▁Final	-9975
▁navig	-9976
nes	-9977
ivot	-9978
▁instances	-9979
▁empire	-9980
▁unav	-9981
gu	-9982
▁5000).	-9983
▁operate	-9984
directional	-9985
▁[(1,	-9986
▁sound	-9987
▁Abs	-9988
▁sectors	-9989
▁forces	-9990
razil	-9991
▁7-	-9992
▁equipment	-9993
his	-9994
Mandarin	-9995
days	-9996
▁Yura	-9997
▁death	-9998
overrightarrow	-9999
uru	-10000
▁'-	-10001
▁Super	-10002
agine	-10003
remove	-10004
encies	-10005
▁Master	-10006
▁distributions	-10007
(1),	-10008
▁4000	-10009
▁Large	-10010
▁20).	-10011
▁diverse	-10012
reachable	-10013
olves	-10014
▁Setter	-10015
▁\[\[1,	-10016
▁flying	-10017
▁bk	-10018
lined	-10019
▁partially	-10020
pite	-10021
ulates	-10022
Set	-10023
▁Del	-10024
0,1\],\[	-10025
▁Simon	-10026
▁acquired	-10027
▁bun	-10028
▁stuff	-10029
▁outcomes	-10030
▁Tic	-10031
▁Du	-10032
▁strs	-10033
duplic	-10034
textit	-10035
▁predictions	-10036
gly	-10037
▁Sha	-10038
^{(	-10039
</	-10040
▁Mandarin	-10041
▁similarly	-10042
▁Tour	-10043
MEX	-10044
▁tj	-10045
▁La	-10046
ounding	-10047
▁detailed	-10048
=0.	-10049
▁3)$	-10050
▁War	-10051
▁scr	-10052
aaaaa	-10053
pandas	-10054
▁destroying	-10055
▁buffer	-10056
▁harvest	-10057
`),	-10058
▁validate	-10059
-1))	-10060
▁~~~	-10061
)^2	-10062
exactly	-10063
▁")"	-10064
▁flips	-10065
▁numerated	-10066
▁published	-10067
▁warp	-10068
▁Mathemat	-10069
▁Egor	-10070
▁monitor	-10071
],[0,	-10072
▁resistance	-10073
(())	-10074
▁league	-10075
▁seating	-10076
▁helps	-10077
▁'-'	-10078
market	-10079
▁radii	-10080
▁profiles	-10081
▁Gal	-10082
8]	-10083
pes	-10084
▁brib	-10085
AS	-10086
)`,	-10087
isha	-10088
▁(10^9+7	-10089
ieves	-10090
▁builds	-10091
▁passable	-10092
ABA	-10093
▁Power	-10094
|-1	-10095
▁Parameters	-10096
▁dur	-10097
[4]	-10098
10010	-10099
▁prohi	-10100
istent	-10101
▁responses	-10102
51	-10103
▁cocon	-10104
▁Kle	-10105
▁influ	-10106
▁problemset	-10107
▁Roh	-10108
▁Rus	-10109
▁з	-10110
▁1]$,	-10111
▁watchman	-10112
Ele	-10113
CCCC	-10114
▁Hello	-10115
▁gains	-10116
▁Da	-10117
insensitive	-10118
\[2\]	-10119
ся	-10120
▁mixt	-10121
▁на	-10122
▁era	-10123
Dict	-10124
▁API	-10125
Each	-10126
▁cents	-10127
ota	-10128
▁4$.	-10129
▁envelop	-10130
▁emer	-10131
▁lottery	-10132
▁contro	-10133
▁0$,	-10134
▁charges	-10135
▁`#	-10136
RE	-10137
▁lady	-10138
rate	-10139
▁108)	-10140
▁Again	-10141
áš	-10142
▁bac	-10143
oom	-10144
craft	-10145
ipart	-10146
▁cleaning	-10147
culi	-10148
▁extension	-10149
lasty	-10150
cer	-10151
garten	-10152
▁Slasty	-10153
▁Slastyona	-10154
▁relatively	-10155
▁timestamp	-10156
▁22,	-10157
▁50%	-10158
Or	-10159
.0.	-10160
bited	-10161
▁zombies	-10162
▁Xenny	-10163
▁stated	-10164
▁Orac	-10165
▁occurring	-10166
▁management	-10167
xn	-10168
▁domain	-10169
UM	-10170
▁ababab	-10171
▁delay	-10172
▁parli	-10173
▁paragraph	-10174
▁competitors	-10175
▁idle	-10176
▁Nikita	-10177
▁parliament	-10178
mic	-10179
▁1)$,	-10180
▁10^{9})	-10181
▁coupons	-10182
▁(9	-10183
▁tape	-10184
▁buckets	-10185
▁Math	-10186
▁AI	-10187
▁Baj	-10188
▁jars	-10189
'-	-10190
▁saying	-10191
▁"20	-10192
ен	-10193
▁eye	-10194
check	-10195
▁mirrors	-10196
_2},	-10197
▁campus	-10198
▁gardens	-10199
▁banner	-10200
beautiful	-10201
cons	-10202
▁Katie	-10203
mean	-10204
▁Bear	-10205
▁isomorphic	-10206
,1,	-10207
▁beats	-10208
▁9),	-10209
▁3000)	-10210
_3)	-10211
▁3·	-10212
▁sharing	-10213
map	-10214
▁circumference	-10215
50,	-10216
▁10^9+7	-10217
▁Fib	-10218
▁million	-10219
444	-10220
▁military	-10221
▁forth	-10222
▁anymore	-10223
▁dre	-10224
diff	-10225
▁100000,	-10226
▁knapsack	-10227
iny	-10228
▁complement	-10229
▁6].	-10230
atever	-10231
asant	-10232
▁Tell	-10233
▁peculi	-10234
▁removal	-10235
▁555	-10236
angled	-10237
▁beavers	-10238
▁50$)	-10239
System	-10240
excluding	-10241
▁identification	-10242
Id	-10243
▁RR	-10244
=(	-10245
3\],\[	-10246
▁poured	-10247
▁allocated	-10248
▁mines	-10249
>>>>>>>>	-10250
▁activated	-10251
Que	-10252
some	-10253
▁Dream	-10254
▁pow	-10255
▁providing	-10256
12}	-10257
▁#####	-10258
ections	-10259
▁recomm	-10260
▁glue	-10261
▁Color	-10262
▁wear	-10263
3$	-10264
▁attempts	-10265
▁vy	-10266
▁logg	-10267
▁rhym	-10268
▁shell	-10269
▁dn	-10270
▁legs	-10271
We	-10272
▁Valer	-10273
▁tangerines	-10274
^\	-10275
pany	-10276
OU	-10277
▁Arsen	-10278
▁release	-10279
mathit	-10280
▁Station	-10281
▁luggage	-10282
▁Rows	-10283
▁pushes	-10284
▁serves	-10285
Land	-10286
▁acts	-10287
vey	-10288
\&	-10289
rand	-10290
▁ment	-10291
▁19,	-10292
▁1,000	-10293
▁10000.	-10294
▁meal	-10295
▁constants	-10296
▁executing	-10297
▁electricity	-10298
mission	-10299
▁*******	-10300
oi	-10301
10^5)	-10302
▁Additional	-10303
▁Mom	-10304
▁fleet	-10305
rain	-10306
▁indirectly	-10307
+2+3	-10308
denoted	-10309
▁promised	-10310
▁Life	-10311
▁`1`,	-10312
▁Answers	-10313
holes	-10314
▁Sunday	-10315
▁utensils	-10316
zing	-10317
▁2^2	-10318
agers	-10319
▁ceiling	-10320
▁switched	-10321
▁millise	-10322
▁10000000	-10323
opter	-10324
▁individually	-10325
▁10^9$	-10326
▁bookshe	-10327
▁Cost	-10328
▁physical	-10329
▁growth	-10330
▁4|	-10331
\]\],	-10332
▁followers	-10333
▁preparation	-10334
▁quot	-10335
▁([	-10336
DataFrame	-10337
▁scientific	-10338
▁дан	-10339
▁θ	-10340
▁255	-10341
▁10,000	-10342
▁Reverse	-10343
▁damaged	-10344
▁coders	-10345
warf	-10346
aruto	-10347
oughly	-10348
scissors	-10349
▁experiments	-10350
+10	-10351
▁missed	-10352
▁-2.	-10353
▁10^{3}	-10354
▁inters	-10355
▁seated	-10356
▁ages	-10357
▁`3`	-10358
asya	-10359
▁login	-10360
say	-10361
▁Whenever	-10362
▁answering	-10363
▁scatter	-10364
▁strongest	-10365
(\	-10366
▁777	-10367
▁Gena	-10368
ported	-10369
▁alter	-10370
▁[(	-10371
▁arriving	-10372
actic	-10373
▁Say	-10374
▁Mich	-10375
5:	-10376
▁brow	-10377
engali	-10378
▁India	-10379
otten	-10380
▁genome	-10381
▁barrels	-10382
▁compression	-10383
▁excited	-10384
▁consideration	-10385
▁Level	-10386
▁trunc	-10387
▁IQ	-10388
▁dresses	-10389
▁marry	-10390
▁peculiar	-10391
▁reaction	-10392
▁Ika	-10393
essage	-10394
▁Imagine	-10395
▁recursively	-10396
▁orientation	-10397
▁dry	-10398
:00:00	-10399
▁1.000000	-10400
▁maths	-10401
▁332748119	-10402
(),	-10403
▁Imp	-10404
▁{1},	-10405
greater	-10406
▁upcoming	-10407
▁fragment	-10408
▁popularity	-10409
00.	-10410
▁models	-10411
wy	-10412
▁"?"	-10413
▁Divide	-10414
olly	-10415
column	-10416
▁rescu	-10417
▁supermarket	-10418
▁robber	-10419
active	-10420
▁walked	-10421
alpha	-10422
▁Creat	-10423
▁Book	-10424
▁attraction	-10425
▁quantif	-10426
▁5.0	-10427
▁tee	-10428
magic	-10429
Bengali	-10430
iron	-10431
▁flags	-10432
▁edit	-10433
▁farthest	-10434
▁Dreamoon	-10435
▁terminates	-10436
)^	-10437
▁buns	-10438
▁territory	-10439
bled	-10440
etch	-10441
▁(-1,	-10442
▁newspaper	-10443
Sk	-10444
jt	-10445
unks	-10446
split	-10447
▁scul	-10448
_1},	-10449
▁Daniel	-10450
▁banned	-10451
AAA	-10452
▁Oz	-10453
▁detachment	-10454
▁interpreted	-10455
▁consonant	-10456
▁decreased	-10457
SAMPLE	-10458
▁rescue	-10459
▁Martians	-10460
▁Sen	-10461
1,2],	-10462
▁reset	-10463
▁sculpt	-10464
▁corre	-10465
▁superv	-10466
▁official	-10467
▁plug	-10468
▁completes	-10469
ofáš	-10470
pair	-10471
▁Kleofáš	-10472
▁submitted	-10473
10^8	-10474
direction	-10475
ilton	-10476
▁private	-10477
black	-10478
▁1,000$	-10479
ythagorean	-10480
▁3⋅	-10481
▁South	-10482
=3$,	-10483
▁26.	-10484
▁Place	-10485
▁financ	-10486
ancestor	-10487
▁-4,	-10488
atsu	-10489
4,4,	-10490
▁dynam	-10491
12)	-10492
Vietnamese	-10493
▁developer	-10494
▁togg	-10495
▁matters	-10496
ipartite	-10497
▁Appleman	-10498
*5	-10499
▁aaab	-10500
ofey	-10501
▁Timofey	-10502
▁alphabetic	-10503
▁0].	-10504
▁divisions	-10505
▁milliseconds	-10506
▁beac	-10507
acb	-10508
=1$,	-10509
▁10^4).	-10510
Treasure	-10511
▁maintaining	-10512
15926	-10513
▁accounts	-10514
▁staff	-10515
▁Cities	-10516
plane	-10517
▁Land	-10518
▁derived	-10519
▁conducted	-10520
▁\}	-10521
▁BP	-10522
▁understands	-10523
▁protect	-10524
4}$	-10525
▁vs	-10526
▁unused	-10527
stud	-10528
Stack	-10529
▁Creatnx	-10530
plet	-10531
▁999999	-10532
▁exclamation	-10533
fact	-10534
▁legal	-10535
▁thickness	-10536
igma	-10537
lceil	-10538
▁Sud	-10539
▁hon	-10540
)|	-10541
gri	-10542
▁swords	-10543
agger	-10544
▁ABCD	-10545
▁nature	-10546
shift	-10547
▁numbering	-10548
▁jewel	-10549
▁cooked	-10550
"(	-10551
▁meetings	-10552
▁airports	-10553
=[3,	-10554
deed	-10555
▁passwords	-10556
▁5.000000000	-10557
▁altitude	-10558
▁hyperspace	-10559
fr	-10560
_1=	-10561
_2|	-10562
▁Lin	-10563
▁ult	-10564
▁Cent	-10565
▁firstly	-10566
▁listens	-10567
▁username	-10568
▁distinguish	-10569
bda	-10570
▁CH	-10571
What	-10572
▁protein	-10573
nodes	-10574
▁anyway	-10575
KK	-10576
▁Hack	-10577
rceil	-10578
▁****	-10579
▁studied	-10580
UB	-10581
▁Pokemons	-10582
(6)	-10583
▁cockro	-10584
▁absolutely	-10585
cos	-10586
▁Morty	-10587
▁kilos	-10588
▁David	-10589
▁recipes	-10590
qrstuvwxyz	-10591
▁Pot	-10592
▁ccc	-10593
Sort	-10594
cnt	-10595
▁compartment	-10596
▁hungry	-10597
divisible	-10598
▁potatoes	-10599
hil	-10600
▁py	-10601
▁Top	-10602
▁insensitive	-10603
▁Ca	-10604
▁чис	-10605
▁scheduled	-10606
▁pivot	-10607
▁Drazil	-10608
▁retrie	-10609
▁doubles	-10610
▁(2,2)	-10611
▁ocean	-10612
$);	-10613
▁causes	-10614
▁speaking	-10615
(10	-10616
mione	-10617
▁Uzh	-10618
▁indu	-10619
▁Modify	-10620
8}	-10621
oker	-10622
▁213	-10623
▁kinder	-10624
andu	-10625
alities	-10626
▁pairing	-10627
▁od	-10628
▁Rock	-10629
▁3];	-10630
7).	-10631
▁disapp	-10632
▁б	-10633
▁tor	-10634
ormal	-10635
otherwise	-10636
▁artifacts	-10637
_#_#_#	-10638
_#_#_#_#_#_#_#	-10639
142	-10640
vant	-10641
▁purple	-10642
▁bath	-10643
▁pens	-10644
▁profess	-10645
▁punish	-10646
▁climbing	-10647
cast	-10648
Index	-10649
quest	-10650
▁dressed	-10651
▁although	-10652
usions	-10653
▁pedest	-10654
eras	-10655
▁unlucky	-10656
▁encountered	-10657
▁170	-10658
▁dens	-10659
inf	-10660
▁2^{30	-10661
▁imagine	-10662
▁optional	-10663
comput	-10664
urences	-10665
▁vn	-10666
▁pipeline	-10667
▁satur	-10668
▁Programming	-10669
LD	-10670
pending	-10671
▁trainer	-10672
4).	-10673
▁formulas	-10674
▁ties	-10675
▁7.5	-10676
▁prettiness	-10677
1|	-10678
bca	-10679
ldar	-10680
aligned	-10681
▁traversed	-10682
asp	-10683
▁Cle	-10684
Digit	-10685
▁dj	-10686
colle	-10687
▁2015	-10688
▁"9	-10689
▁"101	-10690
▁slip	-10691
▁compat	-10692
▁suspect	-10693
▁rent	-10694
▁Ildar	-10695
-&	-10696
sl	-10697
▁plain	-10698
▁consumed	-10699
alphab	-10700
▁detect	-10701
▁unavailable	-10702
▁\%	-10703
ortest	-10704
▁issues	-10705
▁ternary	-10706
(-	-10707
▁friendly	-10708
illem	-10709
▁born	-10710
▁Willem	-10711
{0	-10712
▁6;	-10713
▁queens	-10714
▁Room	-10715
▁tetra	-10716
▁-1000000000	-10717
period	-10718
mex	-10719
'_	-10720
▁2)$	-10721
▁jar	-10722
Earth	-10723
|}	-10724
▁1-2	-10725
▁nest	-10726
▁dancer	-10727
uesday	-10728
▁leaders	-10729
▁acquaintances	-10730
fg	-10731
▁disli	-10732
2,1,	-10733
▁forgotten	-10734
uccessful	-10735
1",	-10736
▁Mor	-10737
▁mile	-10738
▁portion	-10739
▁mail	-10740
▁foxes	-10741
▁Scient	-10742
|---|---	-10743
▁TH	-10744
lyand	-10745
omi	-10746
game	-10747
Donald	-10748
oids	-10749
▁Act	-10750
▁tit	-10751
Length	-10752
▁technical	-10753
▁420	-10754
▁100000).	-10755
▁sx	-10756
▁serious	-10757
▁suspects	-10758
▁Series	-10759
5;	-10760
=[1,	-10761
▁gates	-10762
▁lex	-10763
▁Tu	-10764
▁Hol	-10765
▁refue	-10766
See	-10767
▁alpha	-10768
▁Mer	-10769
▁Ter	-10770
():	-10771
▁billi	-10772
asc	-10773
▁Vi	-10774
paces	-10775
▁activities	-10776
agonal	-10777
▁debts	-10778
▁phrases	-10779
amen	-10780
▁adjust	-10781
uate	-10782
▁Doe	-10783
▁crop	-10784
▁majority	-10785
3].	-10786
GGGG	-10787
▁Rain	-10788
▁factorization	-10789
dot	-10790
YYYY	-10791
▁analyz	-10792
▁disconnected	-10793
▁Ma	-10794
▁ok	-10795
▁Party	-10796
force	-10797
▁201	-10798
[],	-10799
icip	-10800
▁2·105).	-10801
▁'<	-10802
▁ababa	-10803
▁"(())	-10804
▁$50	-10805
▁::=	-10806
▁particularly	-10807
▁decrement	-10808
ULL	-10809
▁spy	-10810
▁partial	-10811
▁partitioned	-10812
▁Hor	-10813
white	-10814
▁sole	-10815
▁[1,1,	-10816
та	-10817
caten	-10818
▁"8	-10819
▁5*	-10820
izers	-10821
▁feet	-10822
▁dolls	-10823
▁tabs	-10824
ryusha	-10825
▁courier	-10826
mi	-10827
ifies	-10828
▁holidays	-10829
▁Andryusha	-10830
▁High	-10831
chef	-10832
▁100$,	-10833
▁Exactly	-10834
▁:)	-10835
▁AM	-10836
itories	-10837
▁{1	-10838
▁manages	-10839
▁DD	-10840
▁"*"	-10841
▁viewed	-10842
@@	-10843
▁Leon	-10844
▁traps	-10845
▁dx	-10846
▁adm	-10847
represented	-10848
pass	-10849
ка	-10850
2`.	-10851
▁skyscraper	-10852
lam	-10853
aired	-10854
▁2)$,	-10855
omination	-10856
▁definitions	-10857
▁parab	-10858
▁10^6$)	-10859
▁...............	-10860
oth	-10861
water	-10862
▁repaired	-10863
CA	-10864
▁snakes	-10865
▁$(4,	-10866
▁voted	-10867
▁pseudo	-10868
▁craters	-10869
\)	-10870
pth	-10871
+...+	-10872
▁jk	-10873
ael	-10874
▁hyper	-10875
▁eg	-10876
urif	-10877
▁simulation	-10878
▁cache	-10879
▁"`.	-10880
iveness	-10881
rawl	-10882
geeks	-10883
insert	-10884
▁wormholes	-10885
med	-10886
▁miles	-10887
▁drawings	-10888
▁101,	-10889
▁5·105)	-10890
▁moon	-10891
▁feels	-10892
osaur	-10893
▁Chotu	-10894
▁simplify	-10895
▁333	-10896
▁10^{5})	-10897
,1}	-10898
▁nucleotides	-10899
5\],\[	-10900
between	-10901
▁tricks	-10902
▁Hermione	-10903
1,2\]	-10904
astman	-10905
▁melody	-10906
▁capac	-10907
▁Toastman	-10908
▁situations	-10909
];	-10910
▁homet	-10911
▁rational	-10912
▁Ron	-10913
ashed	-10914
▁`0`,	-10915
▁comparing	-10916
intersections	-10917
inta	-10918
▁poem	-10919
▁31,	-10920
▁coordinator	-10921
5\],	-10922
ingo	-10923
▁deals	-10924
▁evaluation	-10925
▁``	-10926
Deer	-10927
▁lets	-10928
▁sqrt	-10929
▁skyscrapers	-10930
hero	-10931
▁weeks	-10932
▁illustrated	-10933
hav	-10934
▁360	-10935
00000000000	-10936
▁oats	-10937
sensitive	-10938
_{3	-10939
▁learnt	-10940
divisor	-10941
▁shortcuts	-10942
▁Metropolis	-10943
rad	-10944
▁230	-10945
▁24-	-10946
▁monit	-10947
-4,	-10948
▁redistrib	-10949
_{1,1}	-10950
criptions	-10951
▁intelligent	-10952
▁10`	-10953
▁Bad	-10954
_1,\	-10955
▁peaks	-10956
_8	-10957
▁railways	-10958
\,000$)	-10959
▁midnight	-10960
▁\[1,2,3,4,	-10961
▁translation	-10962
▁23.	-10963
▁Ever	-10964
▁_{	-10965
8,9,	-10966
▁wolf	-10967
▁patient	-10968
▁accomplish	-10969
!).	-10970
|..	-10971
baba	-10972
▁gaps	-10973
▁Jerry	-10974
▁slight	-10975
gets	-10976
▁Cont	-10977
▁bond	-10978
▁140	-10979
▁Champ	-10980
▁regarded	-10981
2-	-10982
++)	-10983
comb	-10984
▁Nora	-10985
loaded	-10986
2],[	-10987
iche	-10988
▁realize	-10989
{1	-10990
ico	-10991
qua	-10992
▁style	-10993
rink	-10994
▁watered	-10995
rated	-10996
squares	-10997
▁bullet	-10998
▁ко	-10999
▁Sur	-11000
▁piran	-11001
▁flatland	-11002
▁au	-11003
▁lectures	-11004
▁Fred	-11005
▁STD	-11006
▁expert	-11007
▁jewels	-11008
▁Saturday	-11009
▁juiciness	-11010
▁XY	-11011
▁Bash	-11012
▁candle	-11013
▁ei	-11014
stron	-11015
bba	-11016
nis	-11017
▁(15	-11018
OS	-11019
▁Borya	-11020
▁clone	-11021
▁RBS	-11022
▁tweets	-11023
ilter	-11024
▁radio	-11025
▁explosion	-11026
▁bab	-11027
outs	-11028
▁colorings	-11029
▁nucleotide	-11030
ру	-11031
▁Grisha	-11032
▁totally	-11033
▁branches	-11034
▁Usage	-11035
▁olympiad	-11036
tk	-11037
∑_{	-11038
▁hab	-11039
▁opinion	-11040
▁\[\]	-11041
▁(100	-11042
hostname	-11043
▁1018,	-11044
▁crystals	-11045
▁hob	-11046
perfect	-11047
▁durability	-11048
AY	-11049
iy	-11050
▁whitespaces	-11051
▁kindergarten	-11052
bly	-11053
▁5$,	-11054
10^9+7	-11055
▁\[1\]	-11056
▁Map	-11057
▁Meh	-11058
▁approaching	-11059
▁reli	-11060
▁crypt	-11061
▁merchant	-11062
▁worse	-11063
LU	-11064
onym	-11065
their	-11066
▁overflow	-11067
▁MM	-11068
ASCII	-11069
▁3]$,	-11070
▁panc	-11071
▁withdraw	-11072
np	-11073
zx	-11074
ivek	-11075
▁polynomials	-11076
subproblems	-11077
▁WW	-11078
▁woke	-11079
▁dirty	-11080
535	-11081
▁bird	-11082
▁traversing	-11083
▁[["	-11084
aging	-11085
▁worry	-11086
▁7;	-11087
▁commas	-11088
-8	-11089
▁armor	-11090
▁2020	-11091
▁computing	-11092
ilies	-11093
▁deleg	-11094
▁50),	-11095
▁operating	-11096
yon	-11097
▁(3)	-11098
▁topmost	-11099
▁election	-11100
▁233	-11101
▁density	-11102
grade	-11103
quency	-11104
▁Innok	-11105
▁controlled	-11106
▁coffin	-11107
▁roubles	-11108
'}	-11109
▁1->	-11110
IL	-11111
▁Ales	-11112
oting	-11113
▁ate	-11114
▁neighbour	-11115
/2,	-11116
activ	-11117
▁schools	-11118
ito	-11119
lusion	-11120
▁tires	-11121
▁guards	-11122
▁controllers	-11123
attice	-11124
▁{3}	-11125
▁106`	-11126
▁headqu	-11127
(10,	-11128
▁reb	-11129
iltonian	-11130
(7)	-11131
▁1200	-11132
▁abcdef	-11133
▁Flat	-11134
▁prop	-11135
▁slot	-11136
difference	-11137
▁crazy	-11138
▁equiprobably	-11139
.#	-11140
south	-11141
▁Hasan	-11142
contain	-11143
rif	-11144
▁imbalance	-11145
▁pit	-11146
}{2}$	-11147
pendicular	-11148
▁50`	-11149
ли	-11150
▁controls	-11151
▁whatever	-11152
▁browser	-11153
gebra	-11154
=4$	-11155
Integer	-11156
▁hunter	-11157
▁3^2	-11158
▁STR	-11159
7],	-11160
▁hurry	-11161
▁IAO	-11162
▁9999	-11163
▁duck	-11164
▁fed	-11165
▁Dale	-11166
▁10100	-11167
▁tab	-11168
▁role	-11169
▁10^{18},	-11170
▁Eve	-11171
indow	-11172
▁1234567890	-11173
▁unreachable	-11174
▁fle	-11175
▁dont	-11176
▁decks	-11177
▁noble	-11178
▁slogan	-11179
▁collider	-11180
▁Uzhlyand	-11181
▁..#	-11182
LLLL	-11183
aroo	-11184
▁$10^9+7	-11185
ulb	-11186
▁1500	-11187
▁Like	-11188
▁elementary	-11189
▁voting	-11190
Pairs	-11191
▁agrees	-11192
▁Display	-11193
yd	-11194
what	-11195
Man	-11196
jit	-11197
▁Picture	-11198
arrange	-11199
▁occurences	-11200
▁rg	-11201
cessor	-11202
▁english	-11203
subarrays	-11204
▁optimize	-11205
▁10^{12}	-11206
▁deviation	-11207
▁latter	-11208
heap	-11209
▁Who	-11210
plets	-11211
▁bicycle	-11212
▁shut	-11213
▁bouquets	-11214
duce	-11215
oscow	-11216
▁poles	-11217
▁rolling	-11218
▁environ	-11219
▁reposted	-11220
▁spring	-11221
▁ranging	-11222
{4	-11223
▁Ban	-11224
▁forced	-11225
▁crossed	-11226
▁envelopes	-11227
initial	-11228
=\{	-11229
▁clue	-11230
weight	-11231
▁channels	-11232
▁Club	-11233
▁Gener	-11234
item	-11235
▁spectators	-11236
+|	-11237
itam	-11238
sius	-11239
▁community	-11240
jtaba	-11241
▁beauties	-11242
lder	-11243
▁equilateral	-11244
▁Neko	-11245
▁teeth	-11246
Chef	-11247
▁frustr	-11248
ku	-11249
▁xr	-11250
▁coast	-11251
▁supports	-11252
[][]	-11253
▁$0\	-11254
▁RRR	-11255
▁Pari	-11256
▁Techn	-11257
boy	-11258
Follow	-11259
▁Iter	-11260
▁depicted	-11261
special	-11262
look	-11263
▁psy	-11264
ocode	-11265
▁Gold	-11266
▁capacities	-11267
style	-11268
▁cubic	-11269
▁),	-11270
▁banks	-11271
▁kangaroo	-11272
▁'9	-11273
▁Fire	-11274
▁Vivek	-11275
▁latin	-11276
▁($\	-11277
▁Bubbledom	-11278
▁sle	-11279
multi	-11280
▁[2],	-11281
▁vj	-11282
▁Koa	-11283
love	-11284
▁ainta	-11285
▁troop	-11286
▁turboplows	-11287
▁swimming	-11288
▁Pythagorean	-11289
▁2016	-11290
▁[3]	-11291
▁departs	-11292
▁appended	-11293
▁technology	-11294
▁implemented	-11295
oken	-11296
▁blogs	-11297
▁archive	-11298
▁Ministry	-11299
▁xa	-11300
match	-11301
zeros	-11302
▁Euler	-11303
▁Americ	-11304
zip	-11305
▁Dem	-11306
▁distributing	-11307
▁battles	-11308
Buzz	-11309
abca	-11310
▁photograph	-11311
4\],	-11312
▁ugly	-11313
▁lattice	-11314
,2	-11315
aca	-11316
▁dough	-11317
▁Common	-11318
▁inhabit	-11319
sin	-11320
▁(10^{	-11321
4444	-11322
▁saturated	-11323
yx	-11324
▁hats	-11325
▁profile	-11326
▁cact	-11327
▁clocks	-11328
intervals	-11329
▁ensuring	-11330
▁Construct	-11331
aughty	-11332
▁materials	-11333
2->	-11334
▁Corrid	-11335
▁multiplic	-11336
!".	-11337
]],	-11338
▁$)	-11339
anding	-11340
contiguous	-11341
110	-11342
▁indefinite	-11343
db	-11344
▁grammar	-11345
▁billiard	-11346
▁conflict	-11347
▁conversations	-11348
then	-11349
imate	-11350
▁$6$.	-11351
▁Most	-11352
▁exits	-11353
▁mixing	-11354
▁seeing	-11355
repeating	-11356
▁implementing	-11357
mouse	-11358
oints	-11359
▁comfort	-11360
version	-11361
▁fertilizer	-11362
▁unread	-11363
▁Informatics	-11364
","#	-11365
ugs	-11366
▁cij	-11367
arian	-11368
▁Poland	-11369
▁Different	-11370
▁trucks	-11371
");	-11372
▁Under	-11373
▁unbalanced	-11374
rial	-11375
same	-11376
▁handles	-11377
All	-11378
▁PIN	-11379
tuple	-11380
▁Steps	-11381
▁tribe	-11382
▁exhibits	-11383
▁Conne	-11384
▁solid	-11385
ictly	-11386
▁cris	-11387
plicit	-11388
▁endless	-11389
▁Distance	-11390
iper	-11391
▁Bruce	-11392
▁planes	-11393
▁Friends	-11394
▁Scientists	-11395
▁"7	-11396
10^5$	-11397
▁meas	-11398
▁06	-11399
abcc	-11400
undant	-11401
▁bookshelf	-11402
▁Log	-11403
▁surely	-11404
▁existed	-11405
$?	-11406
▁beta	-11407
▁cashier	-11408
▁fa	-11409
▁beam	-11410
keys	-11411
zzar	-11412
▁Wikipedia	-11413
▁700	-11414
Left	-11415
▁inspe	-11416
▁sinks	-11417
▁Nezzar	-11418
▁lanterns	-11419
▁0`	-11420
▁Path	-11421
▁perpendicular	-11422
BST	-11423
▁'/	-11424
▁wakes	-11425
▁30)	-11426
▁rum	-11427
▁'.',	-11428
▁(**	-11429
▁seller	-11430
open	-11431
▁#.#	-11432
▁couples	-11433
isson	-11434
▁veget	-11435
▁restored	-11436
=[5,	-11437
▁wave	-11438
▁grades	-11439
2222	-11440
▁gained	-11441
▁searching	-11442
▁Far	-11443
tek	-11444
ML	-11445
mult	-11446
▁Ye	-11447
ло	-11448
▁cc	-11449
▁■■	-11450
4],[	-11451
▁Indeed	-11452
aranteed	-11453
▁$4$-	-11454
▁realizes	-11455
aru	-11456
’.	-11457
▁TreeNode	-11458
degree	-11459
px	-11460
DDD	-11461
▁"2",	-11462
▁chief	-11463
▁cutlet	-11464
▁McDonald	-11465
ei	-11466
vial	-11467
▁40)	-11468
▁Holmes	-11469
▁Julia	-11470
▁universal	-11471
rdad	-11472
▁Mehrdad	-11473
6$	-11474
player	-11475
▁national	-11476
▁Oh	-11477
▁Ra	-11478
▁Pig	-11479
show	-11480
▁reconstruct	-11481
▁Anc	-11482
▁126	-11483
▁adj	-11484
▁elephant	-11485
aken	-11486
▁Joe	-11487
▁Initialize	-11488
uess	-11489
▁Phys	-11490
ferences	-11491
▁Flatland	-11492
▁subproblems	-11493
jected	-11494
▁200000)	-11495
▁cardinal	-11496
41	-11497
func	-11498
▁brings	-11499
nm	-11500
▁cowavan	-11501
▁utilize	-11502
▁Non	-11503
▁statues	-11504
91	-11505
ocal	-11506
▁rescuers	-11507
▁prohibited	-11508
▁remainders	-11509
dest	-11510
▁superst	-11511
png	-11512
sample	-11513
▁grids	-11514
zu	-11515
▁"#"	-11516
▁trails	-11517
BRG	-11518
Python	-11519
-1,-1,	-11520
Produ	-11521
area	-11522
▁permitted	-11523
RAW	-11524
houses	-11525
▁214	-11526
gments	-11527
1,1\],\[	-11528
▁evaluates	-11529
▁coursework	-11530
40,	-11531
▁350	-11532
▁Len	-11533
▁rap	-11534
Subtask	-11535
naments	-11536
▁pillow	-11537
▁ornaments	-11538
▁Duff	-11539
▁expir	-11540
har	-11541
title	-11542
▁singly	-11543
▁denomination	-11544
▁Hedge	-11545
▁Hedgehog	-11546
akuji	-11547
idakuji	-11548
rnd	-11549
ector	-11550
rehen	-11551
▁judged	-11552
▁throwing	-11553
[1..	-11554
stack	-11555
▁185	-11556
marked	-11557
html	-11558
▁brave	-11559
▁invit	-11560
▁quadril	-11561
▁repaint	-11562
New	-11563
▁$6$,	-11564
▁article	-11565
scale	-11566
#..#..	-11567
▁Pieg	-11568
▁expansion	-11569
▁gnomes	-11570
pmatrix	-11571
▁Amr	-11572
▁continued	-11573
▁40.	-11574
▁syll	-11575
stitute	-11576
▁museums	-11577
▁heal	-11578
▁$-	-11579
▁boxer	-11580
url	-11581
▁Develop	-11582
0]]	-11583
▁Plan	-11584
▁[],	-11585
▁contract	-11586
when	-11587
▁laid	-11588
▁10^5$),	-11589
▁incoming	-11590
▁enumerate	-11591
Div	-11592
▁President	-11593
0$	-11594
не	-11595
740	-11596
▁corporation	-11597
().	-11598
▁Abol	-11599
"]]	-11600
▁5$.	-11601
osses	-11602
▁cameras	-11603
person	-11604
)]	-11605
▁nut	-11606
Let	-11607
+1+1+1+1	-11608
▁evaluated	-11609
now	-11610
usk	-11611
google	-11612
▁dissatisfaction	-11613
▁3)$,	-11614
▁yr	-11615
With	-11616
▁Soon	-11617
7\]	-11618
▁enclosed	-11619
▁Initializes	-11620
▁stam	-11621
▁environment	-11622
▁Lee	-11623
▁degenerate	-11624
atic	-11625
urer	-11626
▁sho	-11627
6,5,	-11628
ulus	-11629
▁$12	-11630
▁memor	-11631
itz	-11632
json	-11633
▁240	-11634
▁naughty	-11635
▁skipped	-11636
uh	-11637
ahul	-11638
▁hire	-11639
▁10^9$,	-11640
▁comprehen	-11641
CH	-11642
▁BC	-11643
▁proposal	-11644
007	-11645
▁stamina	-11646
▁companions	-11647
well	-11648
▁slots	-11649
25,	-11650
▁forwards	-11651
▁$12$	-11652
▁qwerty	-11653
iji	-11654
▁CLICK	-11655
▁pm	-11656
Your	-11657
mode	-11658
▁190	-11659
▁exhib	-11660
▁snack	-11661
▁\]	-11662
▁hedge	-11663
▁10^4$).	-11664
▁hometown	-11665
▁1·	-11666
▁Gos	-11667
▁Hint	-11668
(['	-11669
▁meat	-11670
▁amazing	-11671
▁financial	-11672
cur	-11673
▁marm	-11674
▁raised	-11675
▁guarantees	-11676
▁dart	-11677
▁subtask	-11678
▁0.000000	-11679
▁astron	-11680
▁Teacher	-11681
▁upvote	-11682
tw	-11683
▁flav	-11684
▁lightb	-11685
▁Have	-11686
▁recl	-11687
)/(	-11688
▁ie	-11689
learn	-11690
▁transition	-11691
▁Ay	-11692
\:\:	-11693
▁directories	-11694
▁underground	-11695
▁critical	-11696
}]	-11697
▁hedgehog	-11698
▁hyphen	-11699
▁chamber	-11700
▁intended	-11701
apur	-11702
▁explore	-11703
▁ip	-11704
"></	-11705
▁Cells	-11706
elsius	-11707
▁Fn	-11708
▁recommend	-11709
▁fort	-11710
▁10000),	-11711
▁sliding	-11712
▁9;	-11713
▁crisis	-11714
▁данные	-11715
▁AL	-11716
▁Death	-11717
UN	-11718
aly	-11719
▁decrypt	-11720
▁Innokenty	-11721
▁hotels	-11722
▁accuracy	-11723
▁exhibit	-11724
greatest	-11725
ко	-11726
▁cerem	-11727
▁tugri	-11728
▁Represents	-11729
▁automatic	-11730
▁infection	-11731
▁√	-11732
▁amongst	-11733
▁portions	-11734
,}	-11735
▁labeling	-11736
YYY	-11737
essi	-11738
▁cro	-11739
▁narrow	-11740
▁alternatively	-11741
bl	-11742
▁flatt	-11743
2;	-11744
Col	-11745
ест	-11746
▁wed	-11747
▁likely	-11748
9).	-11749
▁0100	-11750
aining	-11751
▁purposes	-11752
=0$	-11753
▁thieves	-11754
nady	-11755
these	-11756
▁eligible	-11757
,1},	-11758
▁dashes	-11759
▁borrow	-11760
▁++	-11761
▁720	-11762
▁absent	-11763
▁PolandBall	-11764
▁Rot	-11765
▁"0",	-11766
▁insect	-11767
▁Treeland	-11768
364	-11769
Numbers	-11770
▁RS	-11771
than	-11772
▁clicks	-11773
▁barriers	-11774
ende	-11775
▁negl	-11776
nament	-11777
strictly	-11778
▁α	-11779
modulo	-11780
usi	-11781
▁nation	-11782
AAB	-11783
2^	-11784
(\{	-11785
unte	-11786
▁60,	-11787
tower	-11788
tune	-11789
▁younger	-11790
▁exchanges	-11791
poly	-11792
10^5,	-11793
▁intersects	-11794
_1-	-11795
▁Ac	-11796
1","	-11797
▁gall	-11798
▁everywhere	-11799
▁predecessor	-11800
weighted	-11801
▁holiday	-11802
hole	-11803
paren	-11804
substrings	-11805
thus	-11806
Is	-11807
▁diplomas	-11808
▁tasty	-11809
▁volunte	-11810
▁'0',	-11811
▁cannon	-11812
▁rn	-11813
adewo	-11814
adewoosh	-11815
▁worried	-11816
attle	-11817
friend	-11818
mpiads	-11819
▁RE	-11820
stick	-11821
▁exposed	-11822
▁ст	-11823
▁40000	-11824
Cl	-11825
zed	-11826
1110	-11827
^{2})	-11828
▁Grig	-11829
▁Bl	-11830
▁runner	-11831
6\]	-11832
ech	-11833
▁guide	-11834
▁inconvenience	-11835
-01	-11836
asat	-11837
▁wine	-11838
▁deploy	-11839
▁agency	-11840
ero	-11841
▁42,	-11842
▁observation	-11843
▁aN	-11844
isons	-11845
1,3],	-11846
={	-11847
▁bipartite	-11848
▁crystal	-11849
structions	-11850
=11	-11851
▁103)	-11852
repeated	-11853
cessary	-11854
ordinate	-11855
▁dynamic	-11856
▁sink	-11857
=2$.	-11858
▁Koy	-11859
ccer	-11860
pick	-11861
xadecimal	-11862
engu	-11863
▁soccer	-11864
heit	-11865
iant	-11866
▁11:	-11867
▁Which	-11868
▁remote	-11869
Par	-11870
▁bene	-11871
▁1000;	-11872
▁attende	-11873
▁Algorithm	-11874
dem	-11875
▁0\	-11876
OV	-11877
-2|	-11878
▁Sl	-11879
▁AS	-11880
▁1$)	-11881
▁Rules	-11882
▁vehicles	-11883
6],	-11884
▁ldots	-11885
▁Author	-11886
▁lovely	-11887
▁unfairness	-11888
▁'3	-11889
▁BA	-11890
▁3);	-11891
▁harves	-11892
▁Call	-11893
Product	-11894
(6	-11895
JK	-11896
,2,	-11897
▁=$	-11898
hape	-11899
▁dut	-11900
▁10^{18}).	-11901
▁sake	-11902
Queue	-11903
void	-11904
▁Alp	-11905
▁Ujan	-11906
------	-11907
▁Friend	-11908
steps	-11909
▁ropes	-11910
OP	-11911
QL	-11912
img	-11913
▁Gosha	-11914
▁quadru	-11915
▁0.000	-11916
▁stood	-11917
▁armch	-11918
▁voters	-11919
▁suffixes	-11920
wing	-11921
posing	-11922
▁Nikol	-11923
ung	-11924
▁165	-11925
▁tip	-11926
▁posts	-11927
▁sandwich	-11928
▁3\	-11929
▁infinity	-11930
ть	-11931
_{1,2}	-11932
▁excel	-11933
▁underlined	-11934
{3	-11935
▁4$,	-11936
▁slightly	-11937
▁Nim	-11938
▁Arseny	-11939
▁bitstring	-11940
▁brand	-11941
▁300000	-11942
▁Hiasat	-11943
▁Kirill	-11944
▁mustn	-11945
▁synch	-11946
Test	-11947
▁figured	-11948
▁prince	-11949
ходные	-11950
ahren	-11951
▁Score	-11952
ahrenheit	-11953
▁influence	-11954
▁garb	-11955
▁repost	-11956
▁122	-11957
?".	-11958
▁focus	-11959
▁barrier	-11960
IGH	-11961
▁nervous	-11962
OB	-11963
▁headquarters	-11964
My	-11965
minus	-11966
▁fulfills	-11967
▁`$	-11968
uskald	-11969
▁lanes	-11970
▁Mojtaba	-11971
By	-11972
▁20`	-11973
▁wn	-11974
▁silos	-11975
▁trolleyb	-11976
\}\{	-11977
0\]\]	-11978
▁Emuskald	-11979
▁27.	-11980
▁educ	-11981
▁\[1,1,	-11982
▁Sir	-11983
_{10}	-11984
▁Fedya	-11985
}_{	-11986
{(1,	-11987
{2},	-11988
allow	-11989
▁orch	-11990
izontal	-11991
lings	-11992
▁Arjit	-11993
▁flash	-11994
▁Nikolay	-11995
ulls	-11996
OL	-11997
4,3,	-11998
][1]	-11999
cady	-12000
▁$100$	-12001
▁Knowing	-12002
▁gond	-12003
▁Timur	-12004
▁continuously	-12005
---+---+---+---+	-12006
▁CPU	-12007
▁farmer	-12008
▁believe	-12009
▁dinosaur	-12010
▁Freda	-12011
▁wildcard	-12012
▁')'.	-12013
▁cult	-12014
speed	-12015
,2}	-12016
▁rhyme	-12017
▁sublist	-12018
▁3.5	-12019
▁4.5	-12020
▁Moving	-12021
▁patience	-12022
▁developers	-12023
▁tex	-12024
▁'?'.	-12025
▁fastest	-12026
-1:	-12027
▁NN	-12028
▁Empty	-12029
▁Picks	-12030
▁interior	-12031
cope	-12032
enses	-12033
▁Else	-12034
Return	-12035
▁survey	-12036
▁importance	-12037
990	-12038
▁Wor	-12039
▁erasing	-12040
▁covering	-12041
▁proportional	-12042
▁2018	-12043
opolis	-12044
▁surprised	-12045
▁universities	-12046
▁byte	-12047
▁broom	-12048
▁Eugene	-12049
▁comparisons	-12050
4$	-12051
▁locks	-12052
▁slide	-12053
▁rhombus	-12054
▁\{[	-12055
▁dislikes	-12056
▁implements	-12057
tkarsh	-12058
▁orchard	-12059
▁за	-12060
^2.	-12061
▁Micro	-12062
10101010	-12063
▁unsuccessful	-12064
Iter	-12065
▁1,2,3,	-12066
▁chunks	-12067
UL	-12068
tenance	-12069
▁categories	-12070
AE	-12071
items	-12072
▁baking	-12073
interesting	-12074
▁II	-12075
▁Boy	-12076
▁hund	-12077
▁\[2,3,	-12078
▁vp	-12079
Moon	-12080
▁mutual	-12081
▁invert	-12082
▁exhibition	-12083
tuples	-12084
▁congr	-12085
▁auction	-12086
deep	-12087
▁separating	-12088
ryo	-12089
▁6$	-12090
▁bould	-12091
)/(2)	-12092
▁mechanism	-12093
▁compatible	-12094
How	-12095
▁-5,	-12096
▁burst	-12097
▁intersecting	-12098
▁Jane	-12099
▁heating	-12100
▁invites	-12101
▁quadrilateral	-12102
▁chapter	-12103
▁$10^9+7$.	-12104
VKV	-12105
sequent	-12106
foo	-12107
▁accord	-12108
▁Ancient	-12109
fu	-12110
▁asterisk	-12111
▁attitude	-12112
9999999999999999	-12113
▁12]	-12114
▁dreams	-12115
▁10^{15	-12116
▁marker	-12117
ldon	-12118
▁rom	-12119
yal	-12120
▁Testcase	-12121
10^{9}	-12122
▁topics	-12123
-5,	-12124
tag	-12125
▁(1),	-12126
▁grew	-12127
▁[3;	-12128
▁excite	-12129
▁2(	-12130
▁semester	-12131
▁ay	-12132
ieve	-12133
ATION	-12134
▁Single	-12135
bing	-12136
▁10],	-12137
▁subrectangle	-12138
▁shifting	-12139
ether	-12140
▁void	-12141
▁proof	-12142
▁topology	-12143
▁capitalization	-12144
▁fancy	-12145
▁learns	-12146
source	-12147
▁Table	-12148
▁Special	-12149
▁teleportation	-12150
▁Ball	-12151
▁coat	-12152
▁annual	-12153
▁electronic	-12154
▁maintenance	-12155
▁01000	-12156
▁loved	-12157
▁celebration	-12158
.$	-12159
▁kitten	-12160
▁referee	-12161
666666	-12162
▁Lines	-12163
ascending	-12164
▁dial	-12165
▁medium	-12166
▁upwards	-12167
▁00100	-12168
▁{1,2,	-12169
ratic	-12170
anuary	-12171
▁snacks	-12172
ainting	-12173
▁nesting	-12174
▁contrast	-12175
▁watering	-12176
make	-12177
▁odometer	-12178
▁underscores	-12179
▁senior	-12180
ей	-12181
▁auth	-12182
▁shovel	-12183
244	-12184
▁Mil	-12185
Subtasks	-12186
▁preserved	-12187
▁fractional	-12188
▁Ksen	-12189
▁geometry	-12190
Two	-12191
▁risk	-12192
▁XXXXX	-12193
▁132	-12194
nych	-12195
▁Aqua	-12196
▁folders	-12197
▁Zookeeper	-12198
▁traditional	-12199
▁1(	-12200
och	-12201
▁nights	-12202
▁emb	-12203
vari	-12204
vis	-12205
▁fasc	-12206
▁xx	-12207
▁со	-12208
▁\[\],	-12209
▁tm	-12210
▁Panda	-12211
perated	-12212
▁prerequisites	-12213
odya	-12214
2].	-12215
awa	-12216
▁(2,1)	-12217
▁sensor	-12218
▁miner	-12219
▁collinear	-12220
-1})	-12221
1]$,	-12222
theta	-12223
umulative	-12224
▁suspicious	-12225
bag	-12226
▁histor	-12227
FA	-12228
cry	-12229
·2.5	-12230
▁(40	-12231
▁Huff	-12232
▁inscribed	-12233
▁inequalities	-12234
'])	-12235
-20	-12236
▁pin	-12237
▁idol	-12238
▁Island	-12239
▁135	-12240
▁Gac	-12241
▁bush	-12242
current	-12243
▁Gaccho	-12244
▁superhero	-12245
_2).	-12246
▁10:	-12247
▁healthy	-12248
!'	-12249
——	-12250
One	-12251
aka	-12252
▁distant	-12253
▁techniques	-12254
XYZ	-12255
▁secure	-12256
▁inorder	-12257
▁sockets	-12258
baa	-12259
▁uncolored	-12260
▁sight	-12261
▁carries	-12262
directory	-12263
1):	-12264
▁PS	-12265
label	-12266
▁garbage	-12267
(1);	-12268
▁Lun	-12269
▁piz	-12270
ittens	-12271
▁generating	-12272
pers	-12273
zeria	-12274
▁hanging	-12275
▁quantifiers	-12276
occup	-12277
▁(())	-12278
Saturday	-12279
▁operated	-12280
▁pizzeria	-12281
nesday	-12282
▁Based	-12283
▁WIN	-12284
▁formation	-12285
aki	-12286
And	-12287
irm	-12288
▁Commit	-12289
▁personal	-12290
▁cf	-12291
segment	-12292
▁scared	-12293
multiple	-12294
calculate	-12295
regard	-12296
▁capable	-12297
▁deactiv	-12298
▁fireworks	-12299
_7	-12300
▁molecu	-12301
▁tx	-12302
▁rang	-12303
▁um	-12304
0000)	-12305
▁10^12	-12306
▁cactus	-12307
▁tugriks	-12308
▁basement	-12309
20],	-12310
bw	-12311
rick	-12312
▁polic	-12313
PPP	-12314
ago	-12315
▁7`.	-12316
secret	-12317
▁Gregor	-12318
▁establish	-12319
▁kj	-12320
▁Att	-12321
▁Berl	-12322
▁Rahul	-12323
▁HackerEarth	-12324
▁*..	-12325
▁Company	-12326
▁[2,3,	-12327
alia	-12328
▁unhappy	-12329
▁researchers	-12330
▁bis	-12331
ica	-12332
▁1-3	-12333
▁27,	-12334
BWBWBW	-12335
▁stret	-12336
}=	-12337
▁lone	-12338
▁unne	-12339
▁honey	-12340
▁accurate	-12341
▁Kate	-12342
100000	-12343
▁collide	-12344
▁Ben	-12345
▁Committee	-12346
▁26,	-12347
ensor	-12348
stance	-12349
▁10^5`	-12350
▁Words	-12351
integers	-12352
▁believed	-12353
▁yard	-12354
▁defence	-12355
▁ym	-12356
▁100-	-12357
▁Chth	-12358
▁Chtholly	-12359
▁gathering	-12360
▁bbb	-12361
{3}	-12362
▁Gorynych	-12363
orsch	-12364
-1|	-12365
0\],	-12366
racted	-12367
▁Michael	-12368
▁2'	-12369
▁0000000	-12370
▁borsch	-12371
▁stamp	-12372
▁Update	-12373
▁humans	-12374
▁delimiter	-12375
8,9	-12376
▁`|	-12377
▁|0	-12378
▁reordering	-12379
IGHT	-12380
▁tennis	-12381
▁discounts	-12382
▁regress	-12383
▁concerned	-12384
▁spaced	-12385
▁portals	-12386
▁resem	-12387
▁(1,2),	-12388
▁joining	-12389
▁(-1)	-12390
ns	-12391
bee	-12392
▁colon	-12393
▁habit	-12394
ificial	-12395
Day	-12396
▁7:	-12397
burg	-12398
5,6,7,	-12399
440	-12400
▁Nut	-12401
junction	-12402
▁parallelepipeds	-12403
▁sender	-12404
▁summation	-12405
▁stove	-12406
▁numeration	-12407
▁il	-12408
rons	-12409
▁concerts	-12410
ogen	-12411
▁124	-12412
▁grav	-12413
▁storm	-12414
▁Increase	-12415
▁acade	-12416
▁(0≤	-12417
▁500).	-12418
▁plugg	-12419
▁summing	-12420
▁clothing	-12421
▁sch	-12422
called	-12423
▁worked	-12424
▁Grigory	-12425
+3)	-12426
▁`?	-12427
▁keen	-12428
▁consequently	-12429
12345	-12430
▁toug	-12431
isters	-12432
▁oct	-12433
▁Characters	-12434
Cour	-12435
▁acb	-12436
theses	-12437
ev	-12438
▁Dh	-12439
▁aac	-12440
▁noted	-12441
▁tallest	-12442
Log	-12443
▁trainers	-12444
stra	-12445
3,4\]	-12446
▁spare	-12447
pill	-12448
positions	-12449
glass	-12450
▁masses	-12451
+1}$	-12452
][0]	-12453
▁adapt	-12454
▁Rohit	-12455
▁1000$).	-12456
▁palace	-12457
▁drinking	-12458
▁Tournament	-12459
▁kat	-12460
ught	-12461
{5	-12462
aniar	-12463
▁magaz	-12464
▁Xaniar	-12465
▁closes	-12466
++,	-12467
jack	-12468
Toe	-12469
▁6}	-12470
avascript	-12471
▁distinguished	-12472
uta	-12473
3],[	-12474
▁committee	-12475
▁controller	-12476
▁PR	-12477
▁(50	-12478
1\]\]	-12479
▁1)·(	-12480
▁chandel	-12481
aghe	-12482
oline	-12483
llustr	-12484
▁greet	-12485
▁mouth	-12486
▁queues	-12487
(6,	-12488
cycle	-12489
▁DEF	-12490
licopter	-12491
▁unnecessary	-12492
(100	-12493
▁\[10,	-12494
▁prior	-12495
▁quiet	-12496
▁loaded	-12497
▁euro	-12498
▁biscu	-12499
▁laying	-12500
bz	-12501
▁boxers	-12502
iversary	-12503
▁strongly	-12504
▁fishes	-12505
pies	-12506
▁Dark	-12507
▁excluded	-12508
bott	-12509
olving	-12510
▁anniversary	-12511
▁34,	-12512
ertwy	-12513
▁squad	-12514
▁Bytelandian	-12515
▁beans	-12516
tions	-12517
▁laws	-12518
1,2],[	-12519
urrence	-12520
16,	-12521
oshi	-12522
▁\))	-12523
▁$\{1,	-12524
▁icons	-12525
▁".",	-12526
▁`6	-12527
return	-12528
▁bonuses	-12529
▁Report	-12530
▁checkered	-12531
▁Karl	-12532
enguin	-12533
▁BBBBB	-12534
{6	-12535
▁Mel	-12536
etical	-12537
zzzz	-12538
adabra	-12539
▁consume	-12540
▁Dire	-12541
▁Shapur	-12542
▁weapons	-12543
▁spray	-12544
▁Volodya	-12545
≤100	-12546
▁(10^9+7).	-12547
▁pseudonym	-12548
▁Potter	-12549
▁serving	-12550
▁"^	-12551
▁[[0,	-12552
▁Rectang	-12553
▁contradictory	-12554
▁Cand	-12555
▁Jedi	-12556
▁piranha	-12557
▁brothers	-12558
▁remained	-12559
▁shoots	-12560
▁hier	-12561
123456	-12562
▁Victoria	-12563
1].	-12564
8888	-12565
▁coupon	-12566
▁gone	-12567
▁vou	-12568
▁omitted	-12569
▁monotone	-12570
▁Uzhlyandia	-12571
Now	-12572
▁Hanako	-12573
▁cumulative	-12574
▁"$	-12575
▁Spar	-12576
▁patty	-12577
▁.####	-12578
TA	-12579
▁Moscow	-12580
▁explodes	-12581
▁soup	-12582
▁inventory	-12583
▁lemm	-12584
▁downv	-12585
▁Arcady	-12586
▁1];	-12587
▁chemicals	-12588
datetime	-12589
▁Exceeded	-12590
ntax	-12591
▁Ign	-12592
depth	-12593
isets	-12594
▁conclusion	-12595
▁recovered	-12596
345	-12597
▁lemmings	-12598
▁profitable	-12599
▁[1,2]	-12600
▁Bitland	-12601
▁90,	-12602
▁500.	-12603
▁fake	-12604
arium	-12605
▁aims	-12606
▁observe	-12607
permutation	-12608
▁chats	-12609
▁ceremony	-12610
ipal	-12611
ambiguous	-12612
▁contradict	-12613
▁127	-12614
collections	-12615
▁sofa	-12616
▁sushi	-12617
11.	-12618
▁1.00	-12619
▁imps	-12620
▁religions	-12621
▁correspondence	-12622
▁texts	-12623
▁claims	-12624
▁Mountain	-12625
▁Olympics	-12626
▁observing	-12627
▁credit	-12628
▁reclaim	-12629
.'	-12630
▁Sheldon	-12631
>'	-12632
ки	-12633
800	-12634
bad	-12635
ykan	-12636
|)}}	-12637
▁Peykan	-12638
"-	-12639
dicts	-12640
▁lexem	-12641
▁Balls	-12642
▁10000,	-12643
▁netman	-12644
▁resi	-12645
▁theorem	-12646
▁teles	-12647
>;	-12648
ano	-12649
iku	-12650
kth	-12651
▁Rep	-12652
alice	-12653
▁[2,1,	-12654
▁functional	-12655
▁vitam	-12656
▁Rainbow	-12657
rectangles	-12658
▁commander	-12659
▁kay	-12660
▁2019	-12661
Fr	-12662
queue	-12663
▁enth	-12664
bob	-12665
▁не	-12666
▁"?".	-12667
swap	-12668
▁vict	-12669
before	-12670
▁modifying	-12671
▁205	-12672
spaces	-12673
obal	-12674
akozy	-12675
▁Krakozy	-12676
▁Krakozyabra	-12677
▁Should	-12678
▁clones	-12679
occupied	-12680
▁lem	-12681
▁0010	-12682
▁confusing	-12683
ме	-12684
!",	-12685
▁quiz	-12686
▁OS	-12687
mid	-12688
▁9],	-12689
▁effects	-12690
▁unex	-12691
resses	-12692
▁supervisor	-12693
▁из	-12694
▁5000),	-12695
▁sights	-12696
▁1):	-12697
Palindrome	-12698
ursday	-12699
▁$[1,2,	-12700
▁moreover	-12701
EL	-12702
-1],	-12703
▁hacked	-12704
▁Knights	-12705
▁burning	-12706
ighter	-12707
ternal	-12708
1,3\],\[	-12709
▁Alexander	-12710
▁1,000,000,000$	-12711
▁129	-12712
▁202	-12713
▁1600	-12714
▁Nodes	-12715
inating	-12716
▁families	-12717
▁assigning	-12718
▁Wi	-12719
Draw	-12720
▁gear	-12721
▁Correct	-12722
▁caterpill	-12723
denly	-12724
▁pointed	-12725
kiZ	-12726
▁GukiZ	-12727
▁titles	-12728
0,0,1,	-12729
▁metro	-12730
▁subtasks	-12731
2]]	-12732
▁Stone	-12733
▁interfer	-12734
000$.	-12735
▁badge	-12736
▁Euclid	-12737
▁Celsius	-12738
▁Collect	-12739
▁inhabited	-12740
▁6.0	-12741
adding	-12742
▁$998244353	-12743
Tac	-12744
|}{	-12745
▁sharp	-12746
sibility	-12747
Tri	-12748
▁xN	-12749
▁239	-12750
▁April	-12751
▁Poker	-12752
children	-12753
1234567890	-12754
(9)	-12755
▁"6	-12756
▁salo	-12757
▁119	-12758
▁tig	-12759
oved	-12760
▁Vitya	-12761
bbc	-12762
```.	-12763
ре	-12764
▁Fro	-12765
There	-12766
▁tiredness	-12767
ATC	-12768
▁discre	-12769
▁regression	-12770
+2,	-12771
ABCD	-12772
▁80,	-12773
▁dependencies	-12774
ogo	-12775
rub	-12776
▁"2"	-12777
ACK	-12778
,2},	-12779
Iterator	-12780
да	-12781
aah	-12782
tac	-12783
take	-12784
▁Kit	-12785
▁Indian	-12786
prints	-12787
▁RRRRR	-12788
(2);	-12789
▁hosp	-12790
▁adult	-12791
▁□□□□□	-12792
▁trapped	-12793
▁2012	-12794
mutations	-12795
▁AquaMoon	-12796
▁gondolas	-12797
sing	-12798
▁deput	-12799
▁Arnie	-12800
lection	-12801
▁104]`.	-12802
CP	-12803
RY	-12804
▁spo	-12805
▁functionality	-12806
,"	-12807
▁Water	-12808
▁enthusi	-12809
paths	-12810
▁zeb	-12811
▁soci	-12812
▁shock	-12813
average	-12814
▁transfusions	-12815
OF	-12816
▁graphics	-12817
▁Vietnamese	-12818
▁illustrate	-12819
choice	-12820
▁markers	-12821
▁extensions	-12822
frame	-12823
▁rebuild	-12824
▁grown	-12825
dictionary	-12826
ango	-12827
▁Ult	-12828
edible	-12829
▁Messi	-12830
▁inedible	-12831
▁relatives	-12832
▁Patrick	-12833
▁270	-12834
▁viole	-12835
▁0.7	-12836
▁toler	-12837
▁clan	-12838
Random	-12839
▁Apply	-12840
▁tourists	-12841
▁significance	-12842
ACE	-12843
▁Na	-12844
▁orderings	-12845
▁indefinitely	-12846
▁4]$.	-12847
mers	-12848
▁000;	-12849
▁motor	-12850
▁generation	-12851
▁`-104	-12852
▁neat	-12853
▁cargo	-12854
▁speak	-12855
▁adapters	-12856
race	-12857
▁Star	-12858
▁[5]	-12859
operations	-12860
▁Cy	-12861
▁quests	-12862
▁cheaper	-12863
▁internet	-12864
amel	-12865
noon	-12866
▁impress	-12867
-3|	-12868
big	-12869
▁5]$.	-12870
▁subgrid	-12871
cop	-12872
▁1]`	-12873
piece	-12874
▁illeg	-12875
▁twist	-12876
vow	-12877
▁anti	-12878
▁baby	-12879
▁assumes	-12880
▁thousand	-12881
▁engineers	-12882
▁investigate	-12883
▁0.9	-12884
▁666	-12885
sile	-12886
▁`109	-12887
▁planar	-12888
▁rotates	-12889
▁Ly	-12890
▁redistribute	-12891
,0,	-12892
▁Fair	-12893
▁detective	-12894
▁rk	-12895
▁■|	-12896
elly	-12897
OUT	-12898
alg	-12899
▁df	-12900
▁Spe	-12901
▁scoop	-12902
▁Luc	-12903
north	-12904
▁coconut	-12905
▁advanced	-12906
▁Build	-12907
▁sounds	-12908
▁yesterday	-12909
231	-12910
▁poker	-12911
▁Walter	-12912
▁Utkarsh	-12913
11)	-12914
▁32,	-12915
edian	-12916
285714	-12917
▁Perse	-12918
▁nuclear	-12919
Order	-12920
▁measurement	-12921
display	-12922
▁[\	-12923
wood	-12924
dagger	-12925
wd	-12926
▁princi	-12927
▁Process	-12928
▁giant	-12929
▁Opt	-12930
ado	-12931
▁Mathematics	-12932
▁200`	-12933
▁basis	-12934
▁―	-12935
▁rac	-12936
▁neut	-12937
1356	-12938
▁0^2	-12939
▁agent	-12940
▁Swiper	-12941
▁disarm	-12942
0,0\],\[	-12943
▁12:	-12944
▁abd	-12945
Mat	-12946
_{11}	-12947
olved	-12948
▁1)$.	-12949
ilight	-12950
▁races	-12951
▁Ksenia	-12952
▁competing	-12953
▁subsquare	-12954
▁131	-12955
▁instr	-12956
▁limitation	-12957
▁Barb	-12958
▁Refer	-12959
▁[1,2,3]	-12960
fed	-12961
▁jam	-12962
▁chiz	-12963
▁864	-12964
▁upside	-12965
▁handled	-12966
▁$4$:	-12967
▁0.5,	-12968
4,6,	-12969
▁litres	-12970
▁Iterate	-12971
▁Split	-12972
▁guessing	-12973
▁fragments	-12974
▁ц	-12975
▁Daleks	-12976
▁backpack	-12977
}{3}	-12978
awesome	-12979
▁symmetrical	-12980
▁Kyo	-12981
▁wel	-12982
▁Drac	-12983
▁burle	-12984
▁banknote	-12985
?)	-12986
▁reported	-12987
▁excitement	-12988
▁2≤	-12989
▁SM	-12990
▁1+2+3	-12991
ern	-12992
▁`5`	-12993
▁puppies	-12994
QR	-12995
double	-12996
SU	-12997
Check	-12998
▁Poly	-12999
2+	-13000
Requ	-13001
▁2⋅10^5	-13002
▁keyword	-13003
▁universes	-13004
▁currencies	-13005
▁115	-13006
▁35,	-13007
▁Rest	-13008
▁hurt	-13009
▁bribe	-13010
▁bushes	-13011
▁0.00000000	-13012
_(	-13013
▁additionally	-13014
aval	-13015
qual	-13016
▁Okabe	-13017
▁centre	-13018
=3$.	-13019
▁Keep	-13020
▁chores	-13021
▁negligible	-13022
▁Push	-13023
▁Vika	-13024
▁stro	-13025
▁canal	-13026
reverse	-13027
▁permute	-13028
▁transferred	-13029
3]]	-13030
▁"-"	-13031
▁Edges	-13032
▁</	-13033
▁van	-13034
▁mini	-13035
mand	-13036
▁buff	-13037
▁tent	-13038
▁accumulator	-13039
(8	-13040
▁academic	-13041
▁baa	-13042
▁relax	-13043
▁primary	-13044
▁suggests	-13045
lers	-13046
▁Yang	-13047
▁wolves	-13048
initially	-13049
Prime	-13050
vx	-13051
cap	-13052
▁499	-13053
▁Squ	-13054
exist	-13055
comfort	-13056
▁proteins	-13057
ALID	-13058
▁tooth	-13059
▁destru	-13060
opt	-13061
Fizz	-13062
▁114	-13063
▁dad	-13064
▁detail	-13065
3}$	-13066
▁">"	-13067
▁216	-13068
▁OFF	-13069
▁[1,3,	-13070
▁Twilight	-13071
▁pins	-13072
▁disappointed	-13073
▁BR	-13074
▁actor	-13075
pedition	-13076
▁basketball	-13077
zyx	-13078
At	-13079
.).	-13080
trap	-13081
▁Cirno	-13082
Possible	-13083
▁#3	-13084
▁scay	-13085
_2=	-13086
▁resting	-13087
▁1000000000000	-13088
ools	-13089
pred	-13090
▁notebooks	-13091
▁az	-13092
..."	-13093
atar	-13094
▁bcd	-13095
▁lcm	-13096
▁enorm	-13097
4].	-13098
cin	-13099
gression	-13100
ann	-13101
akers	-13102
▁--->	-13103
Xi	-13104
}-	-13105
▁"\]\]	-13106
▁0}	-13107
▁Paul	-13108
▁Lose	-13109
▁happening	-13110
window	-13111
▁incur	-13112
ston	-13113
▁1,2,...,	-13114
▁AtCoDeer	-13115
1|,	-13116
kin	-13117
▁cert	-13118
median	-13119
▁Summer	-13120
^0	-13121
▁Ath	-13122
▁perhaps	-13123
▁reception	-13124
zzy	-13125
▁0.75	-13126
▁Gennady	-13127
▁networks	-13128
▁exceptions	-13129
▁ward	-13130
cab	-13131
pizza	-13132
▁"()".	-13133
▁mutually	-13134
▁centimeter	-13135
**1	-13136
▁signals	-13137
▁0.0000000000	-13138
&#34;	-13139
textrm	-13140
LM	-13141
2]$	-13142
▁Nx	-13143
▁achieving	-13144
▁mathematicians	-13145
▁Feb	-13146
)`:	-13147
toe	-13148
▁(25	-13149
▁examine	-13150
▁challenged	-13151
▁joke	-13152
▁Young	-13153
▁payment	-13154
cor	-13155
▁Assignment	-13156
ISE	-13157
___	-13158
plo	-13159
▁ml	-13160
half	-13161
▁tough	-13162
asty	-13163
▁unoccupied	-13164
ке	-13165
▁4]$,	-13166
374	-13167
Key	-13168
▁SQL	-13169
termin	-13170
fection	-13171
ruary	-13172
▁pouring	-13173
▁alignment	-13174
▁chemistry	-13175
▁biath	-13176
▁summary	-13177
324	-13178
atson	-13179
▁'-',	-13180
▁Hoses	-13181
LR	-13182
eta	-13183
▁стро	-13184
▁$2^{	-13185
▁Mori	-13186
▁Benny	-13187
▁painter	-13188
00$	-13189
▁3}.	-13190
▁swing	-13191
Ad	-13192
▁1))	-13193
▁abbreviated	-13194
fts	-13195
▁shaped	-13196
5555	-13197
{3},	-13198
▁mousetrap	-13199
▁recording	-13200
▁comprehension	-13201
linder	-13202
▁[3,1,	-13203
inition	-13204
▁tiling	-13205
▁synchron	-13206
▁Helicopter	-13207
▁semi	-13208
▁198	-13209
▁Adam	-13210
▁Chaneka	-13211
CT	-13212
1]$	-13213
sia	-13214
kell	-13215
▁Lena	-13216
▁Shil	-13217
center	-13218
▁wheels	-13219
ably	-13220
▁Amidakuji	-13221
▁improvement	-13222
▁`+	-13223
▁divers	-13224
▁fairly	-13225
▁constell	-13226
World	-13227
▁chickens	-13228
▁revealed	-13229
▁unlocked	-13230
▁Light	-13231
▁Mirko	-13232
▁devised	-13233
▁Hexadecimal	-13234
▁smoke	-13235
14,	-13236
▁1×	-13237
▁123,	-13238
▁troph	-13239
▁accommodate	-13240
▁theme	-13241
▁Nikola	-13242
▁actors	-13243
▁terrain	-13244
▁excellent	-13245
▁{6,	-13246
▁consumption	-13247
ALL	-13248
enting	-13249
▁settlements	-13250
▁descendants	-13251
▁Vill	-13252
▁SN	-13253
▁eel	-13254
▁regist	-13255
▁explicit	-13256
wel	-13257
Find	-13258
▁6$.	-13259
▁Down	-13260
encode	-13261
▁sunny	-13262
▁hardness	-13263
ario	-13264
▁grains	-13265
▁rs	-13266
▁8).	-13267
sized	-13268
999999	-13269
▁defend	-13270
▁(2≤	-13271
▁Box	-13272
▁cruc	-13273
▁Danil	-13274
▁Queries	-13275
hetic	-13276
▁inver	-13277
enter	-13278
▁2013	-13279
▁fences	-13280
666666667	-13281
▁film	-13282
▁bakery	-13283
▁deletions	-13284
▁incorrectly	-13285
....#	-13286
▁0111	-13287
▁3.14	-13288
▁chars	-13289
▁crash	-13290
▁unlike	-13291
NOT	-13292
▁costi	-13293
▁tempor	-13294
▁hamsters	-13295
dro	-13296
+0+0	-13297
nyky	-13298
rime	-13299
▁Kay	-13300
ushky	-13301
arenyky	-13302
▁galushky	-13303
4,2,	-13304
nal	-13305
uted	-13306
▁[20,	-13307
▁wife	-13308
nas	-13309
▁$7$.	-13310
▁bead	-13311
primes	-13312
many	-13313
▁multisets	-13314
▁align	-13315
EY	-13316
⋅⋅	-13317
aac	-13318
bro	-13319
▁pad	-13320
▁(1,3)	-13321
▁Linked	-13322
▁shaman	-13323
▁magnetic	-13324
▁"123	-13325
▁wander	-13326
▁administr	-13327
nies	-13328
la	-13329
▁Give	-13330
irth	-13331
▁[4]	-13332
rangle	-13333
▁dislike	-13334
2\	-13335
▁Card	-13336
0,0,0,	-13337
▁Denote	-13338
▁1<	-13339
▁JAG	-13340
▁thin	-13341
▁optimum	-13342
▁quadratic	-13343
▁laugh	-13344
▁renovation	-13345
▁dances	-13346
▁cyclical	-13347
▁executes	-13348
▁arena	-13349
▁schedules	-13350
1421356	-13351
▁curry	-13352
▁schol	-13353
letters	-13354
▁-10000	-13355
▁\[\[0,1\],\[	-13356
▁-12	-13357
▁dise	-13358
▁explode	-13359
▁cylinder	-13360
2·	-13361
"},	-13362
▁7].	-13363
▁enormous	-13364
▁fool	-13365
▁COD	-13366
▁astronaut	-13367
Sm	-13368
▁Index	-13369
▁simulates	-13370
""	-13371
▁idi	-13372
▁fills	-13373
complete	-13374
periodic	-13375
▁authors	-13376
▁____	-13377
▁bowls	-13378
77777777	-13379
▁awesome	-13380
▁sne	-13381
izard	-13382
chitz	-13383
▁Lips	-13384
normal	-13385
▁disposal	-13386
▁Lipschitz	-13387
▁cockroach	-13388
▁grey	-13389
▁.#.#.	-13390
*9	-13391
5,1,	-13392
5],[	-13393
▁Ray	-13394
▁Joey	-13395
cherry	-13396
logN	-13397
▁bba	-13398
▁highly	-13399
▁Computer	-13400
▁operates	-13401
▁[1,2,3,4,	-13402
▁calm	-13403
▁caterpillar	-13404
▁spin	-13405
inuous	-13406
ednesday	-13407
▁1,000,000	-13408
▁preferences	-13409
AX	-13410
▁"000	-13411
ulated	-13412
▁hashing	-13413
▁conference	-13414
ran	-13415
▁104.	-13416
cience	-13417
▁Fafa	-13418
▁sublists	-13419
[5]	-13420
unning	-13421
yellow	-13422
▁Rubik	-13423
▁ATK	-13424
{,}	-13425
▁од	-13426
▁helping	-13427
▁ambiguous	-13428
▁smartphone	-13429
▁colorfulness	-13430
81	-13431
▁33,	-13432
▁downloaded	-13433
allen	-13434
▁dump	-13435
▁shadow	-13436
▁SET	-13437
▁pent	-13438
▁Alan	-13439
▁fallen	-13440
▁shower	-13441
angram	-13442
▁convention	-13443
=[2,	-13444
▁ber	-13445
▁Polo	-13446
▁heading	-13447
▁prediction	-13448
▁responsibility	-13449
_0$	-13450
izations	-13451
▁startup	-13452
▁ven	-13453
acle	-13454
enta	-13455
▁Try	-13456
▁reversal	-13457
▁ATM	-13458
▁1000000009	-13459
kh	-13460
tim	-13461
ilya	-13462
▁Filya	-13463
▁datetime	-13464
▁collisions	-13465
▁repetition	-13466
▁whiteboard	-13467
Task	-13468
▁bca	-13469
▁Carl	-13470
▁Fast	-13471
▁gene	-13472
▁Watson	-13473
20.	-13474
IJK	-13475
▁32.	-13476
'},	-13477
groups	-13478
333	-13479
_{4}	-13480
▁Back	-13481
amount	-13482
inguish	-13483
termined	-13484
▁Class	-13485
▁Palindrome	-13486
iman	-13487
intu	-13488
▁parrot	-13489
▁roughly	-13490
▁dirigible	-13491
▁1012)	-13492
▁useless	-13493
▁Suddenly	-13494
▁complain	-13495
▁interpret	-13496
▁MOD	-13497
▁mand	-13498
▁lesser	-13499
▁10^{6}$	-13500
▁purchases	-13501
▁fat	-13502
▁Kyoya	-13503
▁preserving	-13504
[3	-13505
▁IMP	-13506
▁10^{16	-13507
ship	-13508
▁Fore	-13509
▁Diatar	-13510
Subarray	-13511
▁pseudocode	-13512
ativity	-13513
▁⇒	-13514
▁Id	-13515
▁2-3	-13516
▁Cases	-13517
▁shorten	-13518
▁salaries	-13519
▁ya	-13520
▁11001	-13521
▁yields	-13522
▁forecast	-13523
udes	-13524
▁Illustr	-13525
Binary	-13526
▁Everything	-13527
▁duplicated	-13528
▁Republic	-13529
▁'4	-13530
▁Mister	-13531
▁decrypted	-13532
▁artificial	-13533
▁20%	-13534
▁Gerda	-13535
000,000,000	-13536
824435	-13537
mother	-13538
▁smooth	-13539
oj	-13540
aves	-13541
▁Marm	-13542
▁coal	-13543
▁refers	-13544
=15	-13545
~(1	-13546
**_.	-13547
icol	-13548
different	-13549
▁ellipses	-13550
▁disci	-13551
▁discards	-13552
▁px	-13553
arks	-13554
ancer	-13555
▁"100	-13556
▁bugs	-13557
asso	-13558
▁Cop	-13559
▁4500	-13560
▁bosses	-13561
▁($-10^9	-13562
▁interle	-13563
▁Tommy	-13564
▁31415926	-13565
/01	-13566
-1$.	-13567
ogon	-13568
uing	-13569
itaire	-13570
▁tours	-13571
▁10^4),	-13572
▁10^{4}$	-13573
▁services	-13574
alfunction	-13575
▁Institute	-13576
cil	-13577
Part	-13578
▁dices	-13579
▁compris	-13580
▁armchair	-13581
▁4];	-13582
▁Small	-13583
▁absor	-13584
▁lever	-13585
overn	-13586
Parameters	-13587
▁malfunction	-13588
LS	-13589
▁aest	-13590
▁genres	-13591
▁characteristic	-13592
hell	-13593
▁cond	-13594
▁$10^6	-13595
▁observ	-13596
▁San	-13597
▁appointed	-13598
▁activation	-13599
▁1.0000000000	-13600
▁107).	-13601
forward	-13602
▁hypothes	-13603
▁subgroup	-13604
▁Positions	-13605
▁0000000000	-13606
▁Fahrenheit	-13607
small	-13608
▁dumpl	-13609
▁varenyky	-13610
▁Ask	-13611
▁Ich	-13612
▁reveal	-13613
MMMMMMMM	-13614
▁divisibility	-13615
▁(()	-13616
▁222	-13617
▁seals	-13618
100}	-13619
uchi	-13620
matic	-13621
▁11010	-13622
▁coverage	-13623
▁],	-13624
1]$.	-13625
▁Hom	-13626
▁diversity	-13627
▁paintings	-13628
▁Cast	-13629
▁freed	-13630
pective	-13631
▁Absolute	-13632
AQ	-13633
iko	-13634
▁(10^{9}	-13635
▁Segments	-13636
▁scoreboard	-13637
_2(	-13638
pot	-13639
11111	-13640
▁heater	-13641
▁1.4	-13642
oration	-13643
▁runners	-13644
'$	-13645
yu	-13646
▁Shre	-13647
neighb	-13648
Greatest	-13649
▁Physics	-13650
▁differently	-13651
▁variety	-13652
▁disputed	-13653
▁flushing	-13654
▁completion	-13655
▁expedition	-13656
▁2·109)	-13657
-2}	-13658
Game	-13659
tuce	-13660
▁107)	-13661
▁meals	-13662
▁lettuce	-13663
▁bloggers	-13664
▁occasion	-13665
tax	-13666
▁9].	-13667
▁[3],	-13668
▁gest	-13669
cember	-13670
▁3·105).	-13671
▁(+	-13672
▁chop	-13673
ogether	-13674
▁bubbles	-13675
▁lair	-13676
prefix	-13677
▁baba	-13678
▁Ky	-13679
▁YY	-13680
SSSS	-13681
(1,2)	-13682
olated	-13683
▁$10$.	-13684
▁elder	-13685
▁taught	-13686
+$	-13687
▁Same	-13688
▁protected	-13689
pper	-13690
▁propag	-13691
GR	-13692
aws	-13693
▁san	-13694
▁patrol	-13695
indi	-13696
robe	-13697
▁liking	-13698
▁punishment	-13699
▁`(0,	-13700
▁hierarch	-13701
▁'(	-13702
assable	-13703
▁copied	-13704
▁impassable	-13705
▁bob	-13706
IG	-13707
▁aqu	-13708
every	-13709
мер	-13710
iler	-13711
▁28.	-13712
▁strategies	-13713
/`	-13714
▁CA	-13715
▁freel	-13716
▁prece	-13717
▁neutral	-13718
impossible	-13719
▁clarifications	-13720
▁nails	-13721
ineapple	-13722
▁trading	-13723
▁feelings	-13724
▁messeng	-13725
planations	-13726
abbc	-13727
▁Form	-13728
Element	-13729
▁Koyomi	-13730
▁sessions	-13731
▁Depending	-13732
▁confident	-13733
_2+	-13734
▁march	-13735
▁9`	-13736
chars	-13737
▁travell	-13738
Counter	-13739
▁grouped	-13740
▁\[\[0,	-13741
`-`	-13742
▁boarding	-13743
7$	-13744
_{|	-13745
▁wj	-13746
llywo	-13747
▁hung	-13748
▁Order	-13749
▁merges	-13750
▁owners	-13751
▁decorate	-13752
▁brace	-13753
▁Digits	-13754
▁January	-13755
▁plastic	-13756
▁ciphertext	-13757
▁unambiguous	-13758
,\,	-13759
▁"<"	-13760
▁eager	-13761
▁heavy	-13762
ени	-13763
▁[0]	-13764
▁Upper	-13765
overline	-13766
▁Choosing	-13767
▁subtracted	-13768
enry	-13769
▁Radewoosh	-13770
8$	-13771
boxes	-13772
▁500$)	-13773
▁matplotlib	-13774
▁transforming	-13775
▁4\	-13776
▁$15	-13777
istory	-13778
▁Press	-13779
▁attendees	-13780
▁elimination	-13781
nth	-13782
rome	-13783
amesh	-13784
▁Group	-13785
\],\[3,	-13786
▁processors	-13787
ных	-13788
▁7$	-13789
▁2^3	-13790
TC	-13791
▁MC	-13792
rible	-13793
▁seemed	-13794
▁cleaned	-13795
▁##########	-13796
jectory	-13797
ologies	-13798
▁certific	-13799
▁competitor	-13800
ws	-13801
≤10^5	-13802
Go	-13803
▁solar	-13804
▁Chandan	-13805
▁heat	-13806
▁skewer	-13807
▁7}	-13808
▁cleared	-13809
fered	-13810
▁cher	-13811
inguishable	-13812
[2,	-13813
▁prev	-13814
▁skips	-13815
▁recall	-13816
bability	-13817
overnment	-13818
▁settings	-13819
456	-13820
▁Ow	-13821
|\	-13822
cand	-13823
▁$20$	-13824
▁sites	-13825
▁Harsh	-13826
▁semit	-13827
▁folding	-13828
▁{0	-13829
▁han	-13830
addus	-13831
▁20),	-13832
POSSIBLE	-13833
▁clusters	-13834
▁commonly	-13835
anche	-13836
prices	-13837
▁standings	-13838
estors	-13839
▁sword	-13840
▁1018.	-13841
isors	-13842
▁persu	-13843
▁syntax	-13844
▁valera	-13845
store	-13846
▁vdots	-13847
▁99824435	-13848
▁stacking	-13849
requ	-13850
▁Maybe	-13851
▁blowing	-13852
▁medians	-13853
▁duty	-13854
▁Genos	-13855
▁setup	-13856
▁gravity	-13857
▁primitive	-13858
bling	-13859
▁Counter	-13860
DC	-13861
≤10	-13862
(7	-13863
▁cola	-13864
▁York	-13865
▁2000`	-13866
▁meant	-13867
▁cooler	-13868
▁committed	-13869
▁classmates	-13870
▁1?	-13871
▁2}.	-13872
▁10^3$)	-13873
▁hypothesis	-13874
▁[$	-13875
▁(70	-13876
ababc	-13877
▁Lets	-13878
▁200).	-13879
▁principal	-13880
▁modifications	-13881
=12	-13882
▁147	-13883
▁announce	-13884
▁04	-13885
торо	-13886
▁pockets	-13887
AME	-13888
high	-13889
▁Hand	-13890
▁cute	-13891
▁attain	-13892
▁allocate	-13893
▁spreading	-13894
0).	-13895
▁$2^	-13896
▁(12	-13897
▁combat	-13898
ruit	-13899
▁volcan	-13900
Ber	-13901
▁debt	-13902
lected	-13903
alous	-13904
▁House	-13905
▁wardrobe	-13906
pets	-13907
▁peg	-13908
▁slash	-13909
afes	-13910
uffle	-13911
▁Quest	-13912
▁optimization	-13913
UV	-13914
▁sib	-13915
▁Grid	-13916
orig	-13917
▁Mean	-13918
▁territories	-13919
▁frustration	-13920
ffe	-13921
▁{2	-13922
▁necklaces	-13923
\[3\]	-13924
▁Pink	-13925
▁[11,	-13926
itudes	-13927
▁[0,1,	-13928
▁marath	-13929
▁Product	-13930
▁matchsticks	-13931
▁predetermined	-13932
1	-13933
¬	-13934
987	-13935
▁'0'.	-13936
▁feeling	-13937
▁scholars	-13938
▁"**	-13939
entially	-13940
▁acceleration	-13941
▁operands	-13942
NNNN	-13943
▁104),	-13944
cf	-13945
racecar	-13946
uclidean	-13947
18}	-13948
▁3/	-13949
▁4)$,	-13950
▁bloom	-13951
▁preffered	-13952
kle	-13953
ilip	-13954
▁weekend	-13955
tops	-13956
▁Manager	-13957
▁classification	-13958
raph	-13959
▁Nandu	-13960
OOO	-13961
▁Ebi	-13962
▁storing	-13963
3]$.	-13964
versa	-13965
union	-13966
▁Hamiltonian	-13967
aaaaaaaaaaaaaaaa	-13968
tube	-13969
▁killing	-13970
▁Fe	-13971
▁BCD	-13972
▁Lex	-13973
▁Tot	-13974
agheer	-13975
elcome	-13976
▁mentor	-13977
▁Sagheer	-13978
▁310	-13979
▁behave	-13980
▁`'.	-13981
▁boatman	-13982
▁minimizing	-13983
▁atomic	-13984
????????	-13985
▁seperated	-13986
▁champion	-13987
jk	-13988
▁Kur	-13989
ayuta	-13990
▁$7$,	-13991
=[1,2,3,4,	-13992
hai	-13993
▁tonight	-13994
▁activate	-13995
237	-13996
▁married	-13997
▁∀	-13998
gex	-13999
▁shorts	-14000
▁advertise	-14001
▁10^8)	-14002
▁Marmot	-14003
ую	-14004
300	-14005
▁NE	-14006
▁Fam	-14007
▁10^3,	-14008
▁Cal	-14009
▁Flip	-14010
▁007	-14011
model	-14012
▁RRRR	-14013
iner	-14014
▁"..	-14015
▁13)	-14016
▁stripes	-14017
▁[6	-14018
agne	-14019
▁foo	-14020
▁til	-14021
racts	-14022
thest	-14023
▁assumption	-14024
aaaab	-14025
▁fibo	-14026
▁Begin	-14027
▁ellipse	-14028
▁stalls	-14029
▁metal	-14030
▁Kar	-14031
icasso	-14032
▁court	-14033
arithm	-14034
▁Custom	-14035
▁February	-14036
{998244353	-14037
848	-14038
Hindi	-14039
▁Zhen	-14040
▁nuts	-14041
▁10^{5},	-14042
▁|'	-14043
▁45,	-14044
00001	-14045
▁Zhenya	-14046
▁Poisson	-14047
▁aquarium	-14048
▁reflected	-14049
Requirements	-14050
▁inhabitants	-14051
yEs	-14052
▁mn	-14053
\\}$	-14054
main	-14055
▁royal	-14056
▁retrieve	-14057
▁hexagonal	-14058
▁sau	-14059
andon	-14060
▁beet	-14061
working	-14062
▁stopping	-14063
=>	-14064
33.	-14065
▁eb	-14066
▁±	-14067
onel	-14068
=5$	-14069
▁WWW	-14070
▁\{1	-14071
▁rein	-14072
▁-10^{	-14073
▁Ramesh	-14074
za	-14075
▁oh	-14076
▁snowfl	-14077
▁classic	-14078
pal	-14079
urik	-14080
▁Nak	-14081
▁core	-14082
▁*********	-14083
don	-14084
Aryo	-14085
▁proton	-14086
▁skate	-14087
▁parrots	-14088
▁bitcoins	-14089
▁lightsab	-14090
PA	-14091
1`,	-14092
▁Izzy	-14093
▁Column	-14094
▁victim	-14095
▁Children	-14096
▁neighborhood	-14097
▁OF	-14098
лед	-14099
▁Pin	-14100
▁Raju	-14101
▁baseball	-14102
▁attending	-14103
▁invitation	-14104
esar	-14105
▁про	-14106
▁$[6,	-14107
▁Army	-14108
▁excess	-14109
▁Warning	-14110
▁commiss	-14111
600	-14112
▁03	-14113
▁pants	-14114
▁chessmen	-14115
iki	-14116
ьно	-14117
▁ideas	-14118
rup	-14119
cube	-14120
▁(2,3)	-14121
Invalid	-14122
hy	-14123
▁пол	-14124
▁Never	-14125
▁hp	-14126
apse	-14127
hiks	-14128
▁Random	-14129
▁chizhiks	-14130
-3)	-14131
▁CT	-14132
▁touc	-14133
▁(3,3)	-14134
▁flour	-14135
▁purif	-14136
▁scattered	-14137
▁demolishing	-14138
8\]	-14139
▁Alf	-14140
▁embed	-14141
▁caused	-14142
▁touched	-14143
00000000000000	-14144
▁Aar	-14145
▁Ravi	-14146
▁Point	-14147
=4$,	-14148
▁cos	-14149
ichi	-14150
▁marmots	-14151
▁filename	-14152
▁abilities	-14153
▁III	-14154
▁⋅⋅⋅	-14155
porter	-14156
▁champagne	-14157
▁cdots	-14158
lowercase	-14159
files	-14160
▁broke	-14161
ITE	-14162
▁Head	-14163
▁trajectory	-14164
!.	-14165
uzzle	-14166
ension	-14167
▁bookcase	-14168
▁Fif	-14169
▁Brian	-14170
▁villagers	-14171
▁rm	-14172
▁мо	-14173
sumé	-14174
▁20;	-14175
ésumé	-14176
▁wordList	-14177
▁confidence	-14178
202	-14179
▁2/	-14180
▁9|	-14181
▁RD	-14182
liter	-14183
▁unsigned	-14184
->4	-14185
urg	-14186
▁petals	-14187
▁vmax	-14188
▁pancake	-14189
▁roundness	-14190
▁résumé	-14191
▁context	-14192
▁4)$	-14193
▁Subsequence	-14194
IRST	-14195
bottom	-14196
▁+2	-14197
PLAN	-14198
]|	-14199
▁speech	-14200
▁erases	-14201
wry	-14202
▁qertwy	-14203
▁railroad	-14204
▁conductor	-14205
▁subm	-14206
PLANATION	-14207
▁discussed	-14208
▁preference	-14209
▁surrounding	-14210
OM	-14211
▁Alesha	-14212
▁sprink	-14213
▁15)	-14214
overy	-14215
▁illegal	-14216
▁runtime	-14217
▁decipher	-14218
▁reviewer	-14219
100$	-14220
▁5]$,	-14221
▁Liss	-14222
▁hear	-14223
palindromic	-14224
rete	-14225
▁magazine	-14226
▁{4}	-14227
▁concrete	-14228
▁assembled	-14229
▁fewest	-14230
▁endWord	-14231
999999999	-14232
▁Transport	-14233
▁afternoon	-14234
10^3	-14235
▁Fur	-14236
▁"0".	-14237
▁casting	-14238
▁xm	-14239
_{3,	-14240
osest	-14241
▁bikes	-14242
▁Transl	-14243
▁repainting	-14244
ма	-14245
hspace	-14246
▁Fer	-14247
▁dyn	-14248
▁Tokyo	-14249
▁typical	-14250
▁`-109	-14251
150	-14252
stant	-14253
24,	-14254
▁8;	-14255
organ	-14256
▁cols	-14257
create	-14258
program	-14259
structed	-14260
hips	-14261
ishi	-14262
▁geeks	-14263
▁\[1\],	-14264
▁Cicasso	-14265
▁");	-14266
▁Mas	-14267
▁[-	-14268
▁Bal	-14269
▁widely	-14270
▁bullets	-14271
▁sensors	-14272
..,	-14273
émon	-14274
▁rental	-14275
▁despite	-14276
▁overlaps	-14277
▁IMPOSSIBLE	-14278
▁enh	-14279
▁intel	-14280
▁transmit	-14281
atov	-14282
▁plt	-14283
▁pollywo	-14284
▁shore	-14285
▁probable	-14286
▁transpose	-14287
reh	-14288
▁"111	-14289
▁pole	-14290
uppercase	-14291
▁cellular	-14292
▁furthest	-14293
directionally	-14294
GGG	-14295
clusive	-14296
▁combining	-14297
▁unreadable	-14298
radi	-14299
▁gifted	-14300
▁Xsquare	-14301
▁stronger	-14302
iment	-14303
▁similarity	-14304
▁0)$	-14305
▁WWWWW	-14306
Box	-14307
▁Fizz	-14308
▁Prov	-14309
▁Valid	-14310
▁indist	-14311
▁keypad	-14312
▁taller	-14313
▁reminder	-14314
18,	-14315
▁`2`,	-14316
dx	-14317
▁pij	-14318
angular	-14319
▁secondary	-14320
▁spectator	-14321
3210	-14322
celes	-14323
▁ramen	-14324
▁successively	-14325
▁Pri	-14326
▁violet	-14327
=4.	-14328
▁wk	-14329
Words	-14330
▁0.00	-14331
▁chandeliers	-14332
=1$.	-14333
▁JATC	-14334
▁quantities	-14335
▁jack	-14336
▁lonely	-14337
▁harvested	-14338
erk	-14339
racadabra	-14340
{0}	-14341
▁1^2	-14342
▁Henry	-14343
▁acorn	-14344
coll	-14345
▁silo	-14346
▁knife	-14347
tro	-14348
▁orbit	-14349
▁spies	-14350
▁gj	-14351
▁$(5,	-14352
▁jealous	-14353
▁discrete	-14354
duplicates	-14355
▁hooks	-14356
▁hundred	-14357
▁creation	-14358
▁affects	-14359
0000:0000:	-14360
soft	-14361
▁#3:	-14362
awreh	-14363
posit	-14364
▁Jury	-14365
▁fear	-14366
▁Ayush	-14367
▁Element	-14368
▁179	-14369
▁wid	-14370
orious	-14371
▁former	-14372
▁Warawreh	-14373
▁Bill	-14374
message	-14375
leftmost	-14376
▁obtaining	-14377
)\	-14378
▁1^	-14379
nuts	-14380
osceles	-14381
4`	-14382
▁dwar	-14383
generate	-14384
▁Position	-14385
▁ancestors	-14386
▁т	-14387
*.*	-14388
▁194	-14389
▁`<	-14390
▁{3	-14391
▁wer	-14392
▁...#	-14393
▁Piegirl	-14394
▁physics	-14395
▁789	-14396
▁10000000000	-14397
▁STDIN	-14398
168	-14399
▁cx	-14400
abad	-14401
▁adores	-14402
▁Proceed	-14403
2",	-14404
▁[10	-14405
▁Than	-14406
▁Coordinates	-14407
▁West	-14408
`'	-14409
▁60)	-14410
allenge	-14411
▁200,000	-14412
arithmetic	-14413
eee	-14414
hered	-14415
▁00:00	-14416
▁rival	-14417
painted	-14418
▁hitting	-14419
▁penguin	-14420
▁Clearly	-14421
▁obtains	-14422
ham	-14423
Limit	-14424
▁rush	-14425
▁[[0,1	-14426
▁tossing	-14427
▁dash	-14428
▁recip	-14429
lig	-14430
▁Wa	-14431
ICPC	-14432
fair	-14433
▁jokes	-14434
▁emails	-14435
▁baskets	-14436
▁lemming	-14437
▁Ã	-14438
fib	-14439
5,5,	-14440
▁246	-14441
amans	-14442
▁century	-14443
▁Men	-14444
▁flows	-14445
▁filters	-14446
people	-14447
▁conducting	-14448
▁vx	-14449
arity	-14450
zen	-14451
▁36,	-14452
linked	-14453
update	-14454
▁December	-14455
▁principle	-14456
sv	-14457
▁Ty	-14458
▁radians	-14459
▁websites	-14460
▁chunk	-14461
▁Auxill	-14462
▁spruce	-14463
▁succeed	-14464
▁logarithm	-14465
▁subtractions	-14466
*,	-14467
2,3],	-14468
0,0,0,0,0,0,0,0,	-14469
As	-14470
▁quat	-14471
▁Brain	-14472
cccc	-14473
▁345	-14474
▁Walk	-14475
▁arithm	-14476
▁algebra	-14477
▁displaying	-14478
rone	-14479
▁lord	-14480
▁Marut	-14481
▁Would	-14482
according	-14483
▁anybody	-14484
▁05:	-14485
▁nap	-14486
▁Panama	-14487
▁stamps	-14488
▁wedding	-14489
▁demonstrate	-14490
4]$	-14491
fol	-14492
▁Hum	-14493
▁$11$	-14494
▁tosses	-14495
abilities	-14496
710	-14497
▁counters	-14498
▁Jam	-14499
536	-14500
ABB	-14501
▁AG	-14502
▁Kth	-14503
▁endi	-14504
▁1.00000000	-14505
▁400,	-14506
▁Sith	-14507
▁upvotes	-14508
▁Descriptions	-14509
four	-14510
▁Leonid	-14511
▁bishops	-14512
▁constellation	-14513
=5$,	-14514
▁`'0	-14515
▁007.	-14516
▁trig	-14517
▁fab	-14518
▁Asian	-14519
▁reven	-14520
▁Moon	-14521
▁maximally	-14522
",".",".",".",".	-14523
">	-14524
▁scar	-14525
atching	-14526
▁strugg	-14527
▁binomial	-14528
▁Ax	-14529
orange	-14530
▁drunk	-14531
▁parse	-14532
▁monitoring	-14533
sn	-14534
va	-14535
▁arms	-14536
▁dealer	-14537
▁parabola	-14538
щи	-14539
▁archers	-14540
▁centroid	-14541
▁"[	-14542
▁upward	-14543
▁sticker	-14544
▁recovery	-14545
▁logged	-14546
▁adaptive	-14547
elling	-14548
▁troops	-14549
▁Piet	-14550
▁Division	-14551
▁delimited	-14552
▁cafes	-14553
-1))/(2)	-14554
▁American	-14555
subproblem	-14556
▁fountains	-14557
indows	-14558
▁aaabb	-14559
ography	-14560
▁\[\[1,2\],\[	-14561
777	-14562
▁CF	-14563
▁Kul	-14564
▁LED	-14565
_{3},	-14566
pings	-14567
▁genius	-14568
▁Actually	-14569
PG	-14570
hit	-14571
▁NB	-14572
▁schoolchildren	-14573
Map	-14574
▁ooo	-14575
▁extracted	-14576
▁192	-14577
▁Drav	-14578
▁{2},	-14579
▁fract	-14580
ushed	-14581
▁Lexa	-14582
▁huts	-14583
urgents	-14584
ni	-14585
cha	-14586
▁1"	-14587
▁156	-14588
▁exha	-14589
▁Smith	-14590
▁hospital	-14591
▁appropriately	-14592
▁thim	-14593
▁everyday	-14594
▁asteroids	-14595
▁pills	-14596
▁abcabc	-14597
▁archite	-14598
john	-14599
▁10}	-14600
▁Bic	-14601
▁tan	-14602
▁11011	-14603
▁Altern	-14604
▁Dragon	-14605
▁involving	-14606
▁Galaxy	-14607
▁Pokermon	-14608
▁Ol	-14609
▁vo	-14610
▁disple	-14611
▁separators	-14612
NE	-14613
kas	-14614
▁212	-14615
▁(2),	-14616
Matrix	-14617
▁3000,	-14618
▁Government	-14619
▁Ei	-14620
▁1+1	-14621
anagram	-14622
▁mixture	-14623
▁$998244353$.	-14624
▁teleporter	-14625
▁repetitions	-14626
/20	-14627
Cir	-14628
sun	-14629
▁110,	-14630
▁3\},	-14631
▁equiprobable	-14632
▁<<	-14633
arty	-14634
should	-14635
▁essence	-14636
▁identifies	-14637
▁55,	-14638
▁global	-14639
▁hardest	-14640
▁gradient	-14641
▁	-14642
e	-14643
t	-14644
n	-14645
o	-14646
i	-14647
a	-14648
s	-14649
r	-14650
h	-14651
l	-14652
u	-14653
c	-14654
d	-14655
p	-14656
m	-14657
f	-14658
g	-14659
.	-14660
,	-14661
b	-14662
1	-14663
y	-14664
w	-14665
0	-14666
`	-14667
v	-14668
2	-14669
-	-14670
x	-14671
k	-14672
$	-14673
:	-14674
3	-14675
T	-14676
I	-14677
)	-14678
(	-14679
_	-14680
4	-14681
5	-14682
≤	-14683
*	-14684
O	-14685
q	-14686
"	-14687
P	-14688
A	-14689
E	-14690
=	-14691
N	-14692
'	-14693
S	-14694
\	-14695
C	-14696
Y	-14697
6	-14698
#	-14699
9	-14700
F	-14701
[	-14702
]	-14703
7	-14704
W	-14705
+	-14706
8	-14707
j	-14708
{	-14709
}	-14710
B	-14711
z	-14712
M	-14713
—	-14714
<	-14715
^	-14716
L	-14717
H	-14718
R	-14719
D	-14720
|	-14721
>	-14722
;	-14723
G	-14724
/	-14725
U	-14726
X	-14727
K	-14728
V	-14729
?	-14730
!	-14731
J	-14732
Q	-14733
⋅	-14734
→	-14735
&	-14736
·	-14737
×	-14738
Z	-14739
≠	-14740
%	-14741
’	-14742
о	-14743
е	-14744
~	-14745
а	-14746
□	-14747
и	-14748
т	-14749
≥	-14750
н	-14751
«	-14752
»	-14753
–	-14754
”	-14755
“	-14756
р	-14757
с	-14758
д	-14759
в	-14760
⊕	-14761
л	-14762
@	-14763
≦	-14764
■	-14765
∑	-14766
‘	-14767
к	-14768
м	-14769
−	-14770
ы	-14771
п	-14772
∈	-14773
С	-14774
у	-14775
я	-14776
ч	-14777
з	-14778
х	-14779
й	-14780
ь	-14781
б	-14782
⌊	-14783
⌋	-14784
≡	-14785
г	-14786
⌈	-14787
⌉	-14788
В	-14789
é	-14790
ж	-14791
π	-14792
φ	-14793
ю	-14794
ρ	-14795
ц	-14796
š	-14797
щ	-14798
â	-14799
√	-14800
θ	-14801
α	-14802
á	-14803
∀	-14804
─	-14805
∞	-14806
∃	-14807
ш	-14808
―	-14809
●	-14810
¢	-14811
⇒	-14812
±	-14813
¬	-14814
•	-14815
∧	-14816
Ã	-14817
	-14818
	-14819
°	-14820
○	-14821
€	-14822
ф	-14823
П	-14824
⩽	-14825
β	-14826
́	-14827
э	-14828
ε	-14829
≈	-14830
Ж	-14831
∙	-14832
⟩	-14833
⟨	-14834
÷	-14835
č	-14836
ё	-14837
∗	-14838
О	-14839
∣	-14840
│	-14841
А	-14842
λ	-14843
⁄	-14844
К	-14845
Н	-14846
σ	-14847
∏	-14848
∅	-14849
∪	-14850
➝	-14851
Σ	-14852
└	-14853
↓	-14854
Д	-14855
∉	-14856
′	-14857
Т	-14858
Е	-14859
ó	-14860
├	-14861
⟶	-14862
μ	-14863
£	-14864
≺	-14865
₹	-14866
・	-14867
γ	-14868
ö	-14869
δ	-14870
¤	-14871
Φ	-14872
ü	-14873
本	-14874
і	-14875
Г	-14876
З	-14877
↑	-14878
Δ	-14879
⊆	-14880
∩	-14881
☆	-14882
­	-14883
Λ	-14884
ω	-14885
►	-14886
ー	-14887
😢	-14888
の	-14889
ψ	-14890
▓	-14891
ド	-14892
ä	-14893
カ	-14894
解	-14895
説	-14896
Б	-14897
♦	-14898
û	-14899
♣	-14900
←	-14901
↔	-14902
┼	-14903
♠	-14904
è	-14905
ë	-14906
М	-14907
τ	-14908
⊙	-14909
好	-14910
∠	-14911
が	-14912
な	-14913
人	-14914
♥	-14915
合	-14916
░	-14917
き	-14918
割	-14919
♙	-14920
♟	-14921
Ψ	-14922
️	-14923
✔	-14924
η	-14925
┐	-14926
┌	-14927
➞	-14928
Р	-14929
à	-14930
ă	-14931
※	-14932
Э	-14933
И	-14934
ι	-14935
一	-14936
У	-14937
✖	-14938
┴	-14939
⋯	-14940
❤	-14941
ラ	-14942
力	-14943
流	-14944
漂	-14945
ø	-14946
ï	-14947
★	-14948
忽	-14949
厘	-14950
垓	-14951
穣	-14952
년	-14953
↗	-14954
猫	-14955
경	-14956
자	-14957
κ	-14958
†	-14959
〃	-14960
屋	-14961
ß	-14962
Л	-14963
Ä	-14964
十	-14965
✝	-14966
Ф	-14967
Å	-14968
⊂	-14969
⊗	-14970
∴	-14971
⊻	-14972
í	-14973
数	-14974
Ø	-14975
Х	-14976
å	-14977
æ	-14978
ı	-14979
▇	-14980
┘	-14981
的	-14982
∨	-14983
ち	-14984
二	-14985
入	-14986
す	-14987
個	-14988
、	-14989
╱	-14990
╲	-14991
を	-14992
出	-14993
成	-14994
生	-14995
最	-14996
έ	-14997
ん	-14998
ア	-14999
短	-15000
ο	-15001
ς	-15002
え	-15003
に	-15004
ば	-15005
び	-15006
ゃ	-15007
伸	-15008
距	-15009
離	-15010
ί	-15011
א	-15012
‫	-15013
┬	-15014
┤	-15015
イ	-15016
グ	-15017
フ	-15018
レ	-15019
ン	-15020
種	-15021
類	-15022
¶	-15023
Ξ	-15024
℘	-15025
ダ	-15026
リ	-15027
Á	-15028
↖	-15029
り	-15030
置	-15031
ú	-15032
よ	-15033
ム	-15034
三	-15035
換	-15036
検	-15037
閲	-15038
ナ	-15039
バ	-15040
♪	-15041
彩	-15042
‡	-15043
渺	-15044
澗	-15045
臾	-15046
四	-15047
零	-15048
百	-15049
↘	-15050
⋮	-15051
♘	-15052
Ч	-15053
ō	-15054
∘	-15055
♖	-15056
♗	-15057
♜	-15058
♝	-15059
♞	-15060
😊	-15061
̄	-15062
↙	-15063
。	-15064
ç	-15065
◯	-15066
Ö	-15067
八	-15068
≒	-15069
Ü	-15070
五	-15071
◎	-15072
算	-15073
行	-15074
É	-15075
ñ	-15076
ù	-15077
ↇ	-15078
⚫	-15079
✕	-15080
ъ	-15081
万	-15082
之	-15083
点	-15084
Ë	-15085
ì	-15086
剩	-15087
î	-15088
ã	-15089
ć	-15090
七	-15091
空	-15092
ń	-15093
§	-15094
ī	-15095
ł	-15096
ā	-15097
♔	-15098
♕	-15099
物	-15100
✓	-15101
千	-15102
Æ	-15103
ą	-15104
ę	-15105
̅	-15106
‿	-15107
⁡	-15108
◕	-15109
♚	-15110
♛	-15111
⚠	-15112
❗	-15113
➕	-15114
⬅	-15115
づ	-15116
計	-15117
ÿ	-15118
ƒ	-15119
中	-15120
層	-15121
機	-15122
階	-15123
Ï	-15124
ò	-15125
在	-15126
¥	-15127
ê	-15128
略	-15129
い	-15130
有	-15131
正	-15132
詞	-15133
ő	-15134
ǎ	-15135
♄	-15136
年	-15137
次	-15138
Č	-15139
ž	-15140
ǔ	-15141
ʼ	-15142
∛	-15143
☉	-15144
し	-15145
为	-15146
六	-15147
子	-15148
字	-15149
𐊌	-15150
¿	-15151
υ	-15152
χ	-15153
上	-15154
大	-15155
是	-15156
符	-15157
	-15158
ś	-15159
回	-15160
画	-15161
®	-15162
Θ	-15163
‟	-15164
‹	-15165
で	-15166
程	-15167
🚀	-15168
	-15169
¡	-15170
Ó	-15171
ż	-15172
י	-15173
م	-15174
≧	-15175
《	-15176
》	-15177
不	-15178
了	-15179
线	-15180
ź	-15181
Ž	-15182
ب	-15183
ↀ	-15184
ↁ	-15185
ↂ	-15186
ↈ	-15187
≰	-15188
☑	-15189
〈	-15190
ツ	-15191
今	-15192
经	-15193
👍	-15194
💡	-15195
🗺	-15196
Þ	-15197
ț	-15198
ا	-15199
以	-15200
其	-15201
名	-15202
完	-15203
日	-15204
ķ	-15205
Ÿ	-15206
Ц	-15207
ა	-15208
は	-15209
何	-15210
几	-15211
号	-15212
孙	-15213
知	-15214
问	-15215
频	-15216
う	-15217
ど	-15218
ま	-15219
ス	-15220
率	-15221
ن	-15222
⇔	-15223
∂	-15224
∓	-15225
♀	-15226
て	-15227
ょ	-15228
学	-15229
文	-15230
集	-15231
ş	-15232
ش	-15233
ي	-15234
َ	-15235
九	-15236
产	-15237
動	-15238
叮	-15239
咚	-15240
负	-15241
返	-15242
	-15243
Ç	-15244
ل	-15245
ه	-15246
个	-15247
我	-15248
月	-15249
来	-15250
环	-15251
请	-15252
输	-15253
运	-15254
ô	-15255
ש	-15256
و	-15257
た	-15258
下	-15259
和	-15260
形	-15261
循	-15262
换	-15263
ζ	-15264
ա	-15265
ו	-15266
⧖	-15267
你	-15268
容	-15269
志	-15270
數	-15271
替	-15272
第	-15273
舞	-15274
요	-15275
일	-15276
😴	-15277
ի	-15278
ם	-15279
თ	-15280
ი	-15281
ἡ	-15282
≢	-15283
串	-15284
分	-15285
到	-15286
化	-15287
参	-15288
唱	-15289
娘	-15290
愿	-15291
果	-15292
结	-15293
过	-15294
重	-15295
đ	-15296
բ	-15297
թ	-15298
ع	-15299
ے	-15300
ứ	-15301
∊	-15302
临	-15303
值	-15304
函	-15305
列	-15306
前	-15307
后	-15308
城	-15309
始	-15310
并	-15311
彼	-15312
或	-15313
执	-15314
束	-15315
查	-15316
毕	-15317
港	-15318
班	-15319
男	-15320
目	-15321
군	-15322
이	-15323
🌹	-15324
🍌	-15325
🍑	-15326
🍒	-15327
Ñ	-15328
Ω	-15329
ր	-15330
د	-15331
ر	-15332
ُ	-15333
า	-15334
ბ	-15335
შ	-15336
か	-15337
く	-15338
だ	-15339
ハ	-15340
且	-15341
元	-15342
加	-15343
助	-15344
印	-15345
告	-15346
品	-15347
场	-15348
小	-15349
您	-15350
情	-15351
所	-15352
打	-15353
据	-15354
收	-15355
机	-15356
案	-15357
為	-15358
登	-15359
答	-15360
綴	-15361
维	-15362
网	-15363
表	-15364
警	-15365
通	-15366
🍎	-15367
😃	-15368
©	-15369
Î	-15370
ğ	-15371
œ	-15372
ǝ	-15373
ʍ	-15374
ά	-15375
ό	-15376
շ	-15377
س	-15378
ِ	-15379
ّ	-15380
ْ	-15381
ی	-15382
ก	-15383
⇌	-15384
☛	-15385
さ	-15386
つ	-15387
も	-15388
ク	-15389
ジ	-15390
タ	-15391
デ	-15392
业	-15393
传	-15394
位	-15395
使	-15396
单	-15397
同	-15398
地	-15399
失	-15400
女	-15401
定	-15402
寫	-15403
度	-15404
录	-15405
性	-15406
手	-15407
接	-15408
普	-15409
段	-15410
母	-15411
治	-15412
炭	-15413
用	-15414
者	-15415
見	-15416
计	-15417
进	-15418
郎	-15419
都	-15420
错	-15421
長	-15422
시	-15423
🌍	-15424
🌟	-15425
🎄	-15426
🎅	-15427
👋	-15428
È	-15429
Đ	-15430
İ	-15431
Γ	-15432
Ο	-15433
ή	-15434
Я	-15435
ר	-15436
أ	-15437
ة	-15438
ث	-15439
ج	-15440
چ	-15441
ත	-15442
්	-15443
რ	-15444
ậ	-15445
☿	-15446
♃	-15447
こ	-15448
る	-15449
テ	-15450
メ	-15451
並	-15452
义	-15453
件	-15454
企	-15455
低	-15456
作	-15457
偶	-15458
先	-15459
兩	-15460
兴	-15461
円	-15462
再	-15463
刃	-15464
副	-15465
取	-15466
否	-15467
單	-15468
嘉	-15469
報	-15470
复	-15471
多	-15472
奇	-15473
如	-15474
季	-15475
宝	-15476
宾	-15477
对	-15478
就	-15479
序	-15480
式	-15481
後	-15482
找	-15483
指	-15484
新	-15485
时	-15486
检	-15487
模	-15488
欢	-15489
每	-15490
比	-15491
法	-15492
洞	-15493
测	-15494
温	-15495
滅	-15496
盤	-15497
确	-15498
禰	-15499
练	-15500
络	-15501
统	-15502
获	-15503
落	-15504
要	-15505
训	-15506
试	-15507
误	-15508
豆	-15509
趣	-15510
迎	-15511
遍	-15512
量	-15513
録	-15514
除	-15515
非	-15516
音	-15517
鬼	-15518
로	-15519
🌎	-15520
🌡	-15521
🍇	-15522
🎁	-15523
🏽	-15524
😀	-15525
😡	-15526
😭	-15527
🙏	-15528
🥭	-15529
	-15530
	-15531
	-15532
Ê	-15533
ð	-15534
ý	-15535
þ	-15536
Ā	-15537
Ĉ	-15538
Ě	-15539
ħ	-15540
ř	-15541
Ş	-15542
ư	-15543
ə	-15544
ʇ	-15545
Α	-15546
Κ	-15547
Π	-15548
Τ	-15549
ν	-15550
Ё	-15551
Ы	-15552
Ю	-15553
є	-15554
Ե	-15555
ե	-15556
կ	-15557
ո	-15558
ւ	-15559
ք	-15560
ב	-15561
ל	-15562
ء	-15563
آ	-15564
إ	-15565
ت	-15566
پ	-15567
ک	-15568
ہ	-15569
ප	-15570
ො	-15571
ร	-15572
ศ	-15573
ษ	-15574
ี	-15575
ึ	-15576
ვ	-15577
კ	-15578
ო	-15579
ს	-15580
ხ	-15581
ᄋ	-15582
ሰ	-15583
ብ	-15584
ኞ	-15585
ạ	-15586
ả	-15587
ẻ	-15588
ồ	-15589
ờ	-15590
∇	-15591
∫	-15592
あ	-15593
と	-15594
ぶ	-15595
め	-15596
や	-15597
ら	-15598
ィ	-15599
ウ	-15600
エ	-15601
オ	-15602
ガ	-15603
キ	-15604
ギ	-15605
コ	-15606
シ	-15607
ネ	-15608
ブ	-15609
ベ	-15610
ペ	-15611
ャ	-15612
ル	-15613
ロ	-15614
ワ	-15615
也	-15616
习	-15617
事	-15618
交	-15619
京	-15620
亮	-15621
从	-15622
份	-15623
优	-15624
併	-15625
供	-15626
保	-15627
修	-15628
停	-15629
健	-15630
働	-15631
全	-15632
写	-15633
则	-15634
初	-15635
别	-15636
刻	-15637
动	-15638
北	-15639
区	-15640
原	-15641
去	-15642
反	-15643
变	-15644
句	-15645
向	-15646
吾	-15647
咲	-15648
哈	-15649
啦	-15650
器	-15651
图	-15652
型	-15653
域	-15654
場	-15655
嬉	-15656
將	-15657
少	-15658
局	-15659
山	-15660
干	-15661
幸	-15662
康	-15663
总	-15664
恶	-15665
才	-15666
护	-15667
择	-15668
损	-15669
排	-15670
提	-15671
插	-15672
播	-15673
改	-15674
敗	-15675
時	-15676
更	-15677
柱	-15678
标	-15679
校	-15680
格	-15681
楽	-15682
止	-15683
没	-15684
灯	-15685
然	-15686
版	-15687
特	-15688
王	-15689
発	-15690
福	-15691
移	-15692
等	-15693
类	-15694
系	-15695
結	-15696
綺	-15697
级	-15698
自	-15699
般	-15700
花	-15701
苦	-15702
蛇	-15703
蟒	-15704
被	-15705
西	-15706
询	-15707
该	-15708
说	-15709
购	-15710
輩	-15711
轉	-15712
载	-15713
这	-15714
退	-15715
选	-15716
递	-15717
這	-15718
速	-15719
锤	-15720
開	-15721
間	-15722
限	-15723
隔	-15724
需	-15725
靓	-15726
飛	-15727
驚	-15728
高	-15729
麗	-15730
龙	-15731
날	-15732
다	-15733
되	-15734
드	-15735
셨	-15736
스	-15737
에	-15738
우	-15739
월	-15740
짜	-15741
천	-15742
헬	-15743
🇨	-15744
🇳	-15745
🐍	-15746
🐘	-15747
🐶	-15748
💧	-15749
💻	-15750
📚	-15751
😁	-15752
😆	-15753
🚫	-15754
🛌	-15755
🤣	-15756
	-15757
	-15758
À	-15759
Â	-15760
Í	-15761
Õ	-15762
õ	-15763
ĉ	-15764
Ğ	-15765
Ħ	-15766
ĵ	-15767
ţ	-15768
ū	-15769
ŭ	-15770
ů	-15771
ŵ	-15772
ŷ	-15773
ǐ	-15774
̳	-15775
Β	-15776
Ε	-15777
Ι	-15778
Υ	-15779
ϝ	-15780
Й	-15781
Կ	-15782
Հ	-15783
Շ	-15784
Ո	-15785
Չ	-15786
գ	-15787
ն	-15788
ח	-15789
מ	-15790
ן	-15791
נ	-15792
ע	-15793
ת	-15794
ح	-15795
خ	-15796
ً	-15797
ٌ	-15798
ٍ	-15799
ھ	-15800
ග	-15801
න	-15802
ර	-15803
ස	-15804
ු	-15805
ค	-15806
ท	-15807
ป	-15808
ภ	-15809
่	-15810
ე	-15811
მ	-15812
პ	-15813
უ	-15814
ሐ	-15815
ሑ	-15816
ሙ	-15817
ማ	-15818
ሜ	-15819
ረ	-15820
ር	-15821
ሮ	-15822
ስ	-15823
ቅ	-15824
ቡ	-15825
እ	-15826
ክ	-15827
ዓ	-15828
ዕ	-15829
ዳ	-15830
ድ	-15831
ḥ	-15832
ḳ	-15833
ầ	-15834
ẩ	-15835
ế	-15836
ễ	-15837
ố	-15838
ổ	-15839
ớ	-15840
ủ	-15841
Ἀ	-15842
Ἄ	-15843
Ἑ	-15844
Ἡ	-15845
ῦ	-15846
‖	-15847
‧	-15848
‰	-15849
‱	-15850
›	-15851
⁂	-15852
⁍	-15853
⁎	-15854
⁏	-15855
⁑	-15856
⁒	-15857
⁓	-15858
⁕	-15859
⁖	-15860
⁘	-15861
⁙	-15862
⁚	-15863
⁛	-15864
∆	-15865
▼	-15866
◦	-15867
☽	-15868
⬜	-15869
お	-15870
せ	-15871
ぞ	-15872
ろ	-15873
サ	-15874
ノ	-15875
モ	-15876
丁	-15877
世	-15878
乐	-15879
乘	-15880
于	-15881
云	-15882
代	-15883
会	-15884
体	-15885
來	-15886
係	-15887
俊	-15888
信	-15889
像	-15890
兄	-15891
凶	-15892
击	-15893
刀	-15894
判	-15895
剪	-15896
創	-15897
匙	-15898
华	-15899
南	-15900
博	-15901
历	-15902
口	-15903
可	-15904
吃	-15905
吧	-15906
[...]
